<pad>	0
<s>	0
</s>	0
<unk>	0
▁	0
e	-0.758335
s	-3.90574
t	-4.1685
the	-4.37624
a	-4.50516
in	-4.53237
i	-4.66908
and	-4.7585
d	-4.77645
is	-4.86789
to	-4.89007
m	-5.02803
of	-5.04056
cum	-5.34734
est	-5.50392
r	-5.60332
it	-5.63841
non	-5.69027
n	-5.70011
you	-5.73886
on	-5.79447
that	-5.89268
o	-5.93574
as	-5.9625
h	-6.02868
not	-6.07322
for	-6.07709
ad	-6.08625
qui	-6.15181
us	-6.20105
at	-6.27254
um	-6.34804
are	-6.34821
an	-6.37953
he	-6.40977
they	-6.42641
was	-6.42809
his	-6.47918
with	-6.50957
th	-6.57867
or	-6.59025
kai	-6.59414
this	-6.61022
what	-6.61343
sunt	-6.61606
be	-6.61744
ing	-6.63791
ut	-6.64187
do	-6.64405
but	-6.64663
am	-6.6627
have	-6.66921
no	-6.67065
l	-6.68276
who	-6.69996
y	-6.70647
v	-6.71545
per	-6.75499
si	-6.78517
by	-6.79273
her	-6.80286
all	-6.80416
my	-6.83498
him	-6.84861
sed	-6.87949
from	-6.8885
p	-6.91886
so	-6.94673
os	-6.96165
your	-6.97663
go	-6.97841
god	-6.98083
will	-6.99056
c	-6.99976
di	-7.00049
esse	-7.00304
quod	-7.01736
b	-7.05237
quid	-7.05971
we	-7.08606
men	-7.09113
ly	-7.10502
there	-7.11607
ar	-7.12449
if	-7.15357
them	-7.16711
k	-7.18932
can	-7.19483
pro	-7.19903
which	-7.21516
when	-7.21803
quam	-7.22511
g	-7.25841
their	-7.26583
man	-7.27889
que	-7.28103
ta	-7.28493
were	-7.2858
had	-7.304
u	-7.30644
al	-7.32779
said	-7.34138
how	-7.36285
x	-7.37488
autem	-7.39699
out	-7.4035
has	-7.4213
shall	-7.42483
up	-7.43164
deus	-7.4505
tu	-7.50119
ex	-7.50203
un	-7.50467
don	-7.53135
con	-7.54327
ant	-7.55417
haec	-7.57715
qua	-7.59255
w	-7.60209
quia	-7.62339
ti	-7.62365
enim	-7.65346
f	-7.66109
hoc	-7.67209
quae	-7.67683
pi	-7.67704
tur	-7.67793
ab	-7.68485
then	-7.69474
ius	-7.7008
la	-7.72706
did	-7.73063
like	-7.74758
our	-7.77642
eius	-7.80474
anno	-7.80761
io	-7.80812
nos	-7.8148
ri	-7.81538
iam	-7.8191
know	-7.82094
than	-7.82099
more	-7.82185
now	-7.82341
vel	-7.82625
oi	-7.83357
vn	-7.84027
ver	-7.85396
people	-7.85638
where	-7.86808
would	-7.87523
id	-7.87818
rum	-7.88176
say	-7.90136
sit	-7.90658
lord	-7.9076
nam	-7.91267
mihi	-7.91721
st	-7.91783
ns	-7.93001
j	-7.93042
very	-7.93512
co	-7.94396
those	-7.94559
over	-7.95244
nt	-7.95331
tvn	-7.9534
ag	-7.96056
potest	-7.96446
car	-7.96813
quis	-7.96978
time	-7.97139
inter	-7.97283
vos	-7.9834
she	-7.98374
ibus	-7.98443
son	-7.98789
ca	-7.99509
about	-7.9956
vs	-7.99591
day	-8.01893
na	-8.02835
also	-8.03638
quo	-8.03691
aut	-8.03857
ton	-8.0505
ch	-8.05241
many	-8.0833
let	-8.09084
ita	-8.09504
been	-8.0978
dicit	-8.10414
thn	-8.10848
omnes	-8.11214
orum	-8.11479
li	-8.11762
oy	-8.12359
z	-8.12506
erat	-8.12722
some	-8.12731
may	-8.13715
first	-8.1418
ac	-8.14199
any	-8.14897
ur	-8.1515
good	-8.15675
toy	-8.16751
should	-8.16976
come	-8.17525
super	-8.17647
sum	-8.19155
tum	-8.20454
before	-8.20487
par	-8.20815
com	-8.21172
ro	-8.21232
way	-8.21284
tibi	-8.21291
just	-8.2203
ergo	-8.22425
unto	-8.22714
vero	-8.23437
father	-8.24126
other	-8.24723
im	-8.2549
king	-8.25649
after	-8.26782
made	-8.27126
res	-8.27463
israel	-8.27709
tus	-8.28061
into	-8.28904
two	-8.2966
cur	-8.3009
facere	-8.30168
iv	-8.30398
dominus	-8.30989
make	-8.31296
hic	-8.31709
these	-8.31718
part	-8.31921
tua	-8.33184
thou	-8.33755
ap	-8.34011
quem	-8.34034
dixit	-8.35023
long	-8.35573
ma	-8.35897
vit	-8.36142
vi	-8.36259
mea	-8.38333
thy	-8.38363
love	-8.38818
ris	-8.39077
came	-8.39859
aliquid	-8.40043
against	-8.40226
rs	-8.40504
ra	-8.40529
well	-8.40619
land	-8.40636
put	-8.40641
upon	-8.40813
own	-8.40927
nihil	-8.41044
mus	-8.41079
does	-8.41102
great	-8.41481
post	-8.41575
ths	-8.41586
take	-8.41604
dis	-8.41827
il	-8.41965
nunc	-8.42287
things	-8.42299
bo	-8.42383
habet	-8.42985
down	-8.43621
sh	-8.44007
unt	-8.4482
dia	-8.44824
gar	-8.45267
unde	-8.45293
terra	-8.45599
tas	-8.45749
house	-8.46119
because	-8.46562
quidem	-8.46709
modo	-8.4698
ob	-8.47263
dei	-8.47512
give	-8.47728
ian	-8.48065
only	-8.4931
able	-8.50379
get	-8.50459
david	-8.5071
sin	-8.50827
hn	-8.51313
much	-8.51826
sub	-8.51874
ter	-8.52161
quando	-8.52337
nothing	-8.52782
tv	-8.5325
quasi	-8.53381
could	-8.53472
tion	-8.54047
ubi	-8.54208
cl	-8.54761
fer	-8.54949
neque	-8.55183
sua	-8.55411
ation	-8.56324
ni	-8.56352
lo	-8.56429
jesus	-8.56709
ha	-8.56904
even	-8.573
sicut	-8.57446
nor	-8.57665
want	-8.57681
life	-8.57778
less	-8.57897
pros	-8.58074
toys	-8.58114
tamen	-8.5856
mon	-8.58986
work	-8.59121
ium	-8.5953
back	-8.60015
why	-8.60075
pr	-8.61309
new	-8.61727
pl	-8.62081
etiam	-8.62566
cor	-8.63814
tell	-8.64339
such	-8.64713
away	-8.65015
sent	-8.65275
peri	-8.65483
cr	-8.65592
bat	-8.65654
mi	-8.66868
illa	-8.67199
being	-8.67231
right	-8.67405
cui	-8.68121
place	-8.6819
most	-8.68325
ori	-8.68682
suo	-8.68738
ipse	-8.68877
vita	-8.68951
city	-8.69722
its	-8.69945
without	-8.70471
never	-8.71099
atque	-8.7151
war	-8.71745
called	-8.71873
ll	-8.72249
para	-8.72352
old	-8.72479
tis	-8.72759
atur	-8.73546
du	-8.73568
contra	-8.74335
nulla	-8.74372
ry	-8.74423
sic	-8.74506
ment	-8.74521
erunt	-8.74646
year	-8.74947
via	-8.75251
whom	-8.75292
ndum	-8.75615
aliquam	-8.75682
bl	-8.76012
apo	-8.76159
through	-8.76302
vis	-8.7638
tempore	-8.76659
mo	-8.76768
under	-8.76779
nec	-8.77207
hand	-8.77803
op	-8.77977
art	-8.78154
meus	-8.78417
years	-8.78449
children	-8.7889
far	-8.79305
therefore	-8.79533
syn	-8.79651
ci	-8.79824
fac	-8.8001
rat	-8.80313
think	-8.80461
three	-8.80629
va	-8.81046
ir	-8.81058
ven	-8.81759
dicitur	-8.81767
una	-8.81901
still	-8.82097
alia	-8.82214
saying	-8.82296
yahweh	-8.82386
quos	-8.827
sur	-8.83228
mar	-8.83679
ic	-8.84124
believe	-8.84171
tim	-8.84218
usque	-8.84546
off	-8.8463
sti	-8.84729
himself	-8.8484
bit	-8.84846
while	-8.85531
went	-8.85541
something	-8.85799
ten	-8.85842
ndo	-8.86204
ty	-8.87048
apud	-8.87279
ille	-8.87536
su	-8.87886
erit	-8.8811
end	-8.88414
leg	-8.8873
yet	-8.89318
quoque	-8.89349
among	-8.89381
earth	-8.89551
night	-8.89682
pater	-8.89689
quomodo	-8.89881
dic	-8.90394
ph	-8.90658
illi	-8.91546
ntur	-8.91627
sint	-8.91628
christ	-8.9169
yes	-8.91746
dies	-8.91762
da	-8.91832
says	-8.92098
death	-8.92188
mh	-8.92261
ness	-8.9263
prae	-8.92643
q	-8.93229
hi	-8.93457
fecit	-8.93486
sol	-8.93522
omnis	-8.93615
rem	-8.93832
bene	-8.9398
pon	-8.94369
word	-8.95747
labor	-8.95984
again	-8.96088
fuit	-8.96323
ait	-8.96344
another	-8.96524
gen	-8.97064
domini	-8.97138
multa	-8.97728
kata	-8.97961
need	-8.98167
pa	-8.98274
ram	-8.98394
bant	-8.98491
ii	-8.98722
thus	-8.98726
igitur	-8.98862
omnia	-8.9901
num	-8.99212
causa	-8.99241
oys	-8.9944
venit	-9.00047
ana	-9.00462
hear	-9.0087
tio	-9.01019
live	-9.01056
fa	-9.01136
ista	-9.01167
ret	-9.01483
pan	-9.01615
ros	-9.01829
ntes	-9.01862
israhel	-9.01942
nisi	-9.0197
secundum	-9.02471
world	-9.02529
ecce	-9.02564
same	-9.02608
might	-9.03035
illo	-9.0309
both	-9.03165
nobis	-9.03561
lu	-9.0359
ari	-9.03632
prima	-9.0364
homines	-9.04812
second	-9.05224
days	-9.0544
cumque	-9.05515
quas	-9.05817
red	-9.05824
tam	-9.06079
ity	-9.06565
power	-9.06567
prop	-9.06639
esset	-9.07015
abraham	-9.07034
find	-9.07283
nc	-9.07329
home	-9.0748
ol	-9.07625
gu	-9.07945
must	-9.08272
meum	-9.08945
ibi	-9.09199
ach	-9.10231
mor	-9.10445
cannot	-9.10916
erant	-9.1111
really	-9.11234
read	-9.11527
heart	-9.11792
tuo	-9.12317
fo	-9.12321
words	-9.1243
duo	-9.12984
tuum	-9.13582
bar	-9.13898
call	-9.13924
peace	-9.13942
found	-9.1427
po	-9.14382
quoniam	-9.14383
saw	-9.14389
book	-9.14564
between	-9.1469
san	-9.14769
oti	-9.14849
little	-9.15443
took	-9.15473
ndi	-9.15658
lot	-9.15808
rent	-9.15999
didn	-9.16016
plus	-9.1605
nda	-9.16183
help	-9.1661
tri	-9.16722
nomen	-9.16744
vobis	-9.16872
brought	-9.16953
spirit	-9.16969
human	-9.16994
arum	-9.1716
gr	-9.17306
fl	-9.17389
please	-9.17645
kind	-9.17721
until	-9.17925
ask	-9.17945
cas	-9.18019
avit	-9.18077
mer	-9.18079
vide	-9.18192
keep	-9.18311
light	-9.1888
ger	-9.19063
anti	-9.19225
high	-9.19294
nostra	-9.19375
br	-9.19409
pot	-9.19417
going	-9.19425
given	-9.1971
holy	-9.19729
cal	-9.19774
dh	-9.19805
anything	-9.20143
law	-9.20146
left	-9.20466
cap	-9.20988
pass	-9.21081
ba	-9.21197
ypo	-9.21474
tra	-9.21558
free	-9.21797
kat	-9.22238
uh	-9.22531
oyn	-9.22688
qu	-9.22775
tantum	-9.22954
gave	-9.2305
thing	-9.23477
look	-9.23622
ful	-9.23708
roman	-9.23866
last	-9.24239
too	-9.24281
cer	-9.24461
side	-9.24509
vol	-9.24877
mother	-9.24989
fire	-9.25054
audi	-9.25163
bi	-9.25229
win	-9.25319
number	-9.25395
though	-9.25404
bus	-9.25748
numquam	-9.26191
since	-9.26486
itur	-9.26622
tuam	-9.26977
lic	-9.27438
quare	-9.27452
dico	-9.27483
fuerit	-9.27625
anima	-9.27636
itaque	-9.27789
lin	-9.27866
antur	-9.28062
forth	-9.283
error	-9.28457
water	-9.28582
videtur	-9.28588
bas	-9.28613
ko	-9.287
cuius	-9.28969
opera	-9.29003
bring	-9.29014
val	-9.29145
untur	-9.29161
puella	-9.29171
hac	-9.29242
facit	-9.29373
col	-9.29465
ul	-9.29537
tres	-9.29788
around	-9.30062
rerum	-9.30063
fu	-9.30129
mini	-9.30207
facta	-9.30241
filii	-9.30274
filius	-9.30305
yp	-9.30354
isti	-9.30404
bri	-9.30485
behold	-9.3055
ayton	-9.30651
heard	-9.30882
hath	-9.30965
friends	-9.31311
primo	-9.31559
fi	-9.31952
oyk	-9.32125
order	-9.32549
fear	-9.32602
rest	-9.32734
truth	-9.32794
faith	-9.32857
having	-9.32871
ran	-9.33044
uit	-9.33299
dead	-9.33334
tois	-9.33934
homo	-9.34068
ria	-9.34238
placet	-9.34602
speak	-9.3475
together	-9.34751
rex	-9.34776
quantum	-9.34961
act	-9.35276
fr	-9.3558
dicere	-9.35664
tui	-9.35666
ron	-9.35944
iu	-9.35971
real	-9.36012
ga	-9.36121
body	-9.36181
ous	-9.36476
ill	-9.36766
moses	-9.3684
full	-9.369
xi	-9.37156
cast	-9.37201
illum	-9.37318
deo	-9.3732
tai	-9.37942
cut	-9.38214
brother	-9.38223
however	-9.38224
themselves	-9.38303
propter	-9.38393
neither	-9.38475
according	-9.38553
duc	-9.38626
soul	-9.39119
mei	-9.39182
air	-9.39379
annos	-9.39571
vir	-9.39596
pur	-9.39654
sal	-9.3968
ah	-9.39792
mind	-9.39812
others	-9.40168
ber	-9.4019
circa	-9.40522
idem	-9.40591
alla	-9.4071
ting	-9.40769
tic	-9.40848
five	-9.40999
verum	-9.41145
true	-9.41171
maria	-9.41636
veniam	-9.41648
los	-9.41922
bad	-9.42248
luc	-9.42268
hs	-9.42277
maiores	-9.42496
nic	-9.42585
sons	-9.43048
ali	-9.4316
dum	-9.43509
fit	-9.43718
hard	-9.4374
evil	-9.43993
turn	-9.4413
dat	-9.44392
pain	-9.444
iz	-9.44451
lat	-9.44537
fall	-9.44709
aytv	-9.44771
av	-9.44772
better	-9.44819
near	-9.44982
lingua	-9.45855
suai	-9.4591
ja	-9.45966
form	-9.46173
aytoy	-9.46277
prophet	-9.46435
head	-9.46515
return	-9.46744
bra	-9.46916
present	-9.4727
gi	-9.47358
hope	-9.47394
once	-9.47525
honor	-9.47549
vic	-9.47755
hu	-9.47804
answer	-9.47872
ben	-9.48095
ipsum	-9.48105
next	-9.48141
habeo	-9.48198
iuda	-9.48308
easy	-9.48411
plan	-9.48421
einai	-9.48682
servi	-9.48768
cause	-9.48815
statu	-9.48967
bona	-9.49219
four	-9.49269
mal	-9.49309
rit	-9.4965
cus	-9.49689
ecclesia	-9.4994
del	-9.50007
dolor	-9.50051
perfect	-9.50094
mur	-9.5014
af	-9.50385
public	-9.50424
verunt	-9.50539
quaeso	-9.50561
habent	-9.50598
enough	-9.50653
jo	-9.50741
multi	-9.50867
bal	-9.50871
maior	-9.50987
secundo	-9.51087
por	-9.51315
paul	-9.51386
ip	-9.51449
ici	-9.51494
got	-9.51585
magis	-9.5161
nu	-9.51847
told	-9.52062
rv	-9.52145
tribu	-9.52168
semper	-9.52199
alone	-9.52231
cam	-9.52261
der	-9.52377
mean	-9.52382
voluptas	-9.5273
today	-9.52778
pay	-9.5281
veni	-9.52927
drink	-9.52976
und	-9.52999
best	-9.53002
factum	-9.53046
possimus	-9.53275
amor	-9.53369
trans	-9.53378
app	-9.53444
heaven	-9.53447
minus	-9.53585
factus	-9.54138
ary	-9.5426
nostri	-9.54619
dam	-9.54675
born	-9.5484
ica	-9.54893
nemo	-9.54952
money	-9.55116
dicens	-9.55187
thought	-9.55216
salutatione	-9.55256
pol	-9.55482
john	-9.55579
tr	-9.55597
ru	-9.557
caesar	-9.55739
mine	-9.55787
pen	-9.55841
ideo	-9.55852
odio	-9.55909
vo	-9.56139
seen	-9.56148
necesse	-9.56295
habere	-9.56378
respondit	-9.5639
quibus	-9.56528
oh	-9.56592
meta	-9.56657
ham	-9.56813
ak	-9.56825
ship	-9.56851
sui	-9.56867
nocte	-9.56892
comes	-9.57793
domino	-9.57802
cu	-9.57899
liber	-9.57909
cy	-9.5795
blood	-9.58194
hodie	-9.58227
gat	-9.58321
asked	-9.58438
run	-9.58463
sign	-9.58736
bis	-9.5881
kingdom	-9.5882
died	-9.59012
doesn	-9.59073
tuus	-9.59151
sci	-9.59205
au	-9.59308
fratres	-9.59383
saul	-9.59476
course	-9.59616
hold	-9.59623
general	-9.59799
whole	-9.59828
point	-9.60004
domum	-9.60005
almost	-9.6002
person	-9.60026
port	-9.60208
ivn	-9.60311
friend	-9.60575
third	-9.60635
manu	-9.60858
answered	-9.60883
led	-9.60995
coming	-9.61008
suam	-9.61225
stat	-9.61246
different	-9.61285
imp	-9.61417
ians	-9.61479
stra	-9.61551
natus	-9.61557
aliquo	-9.61571
cat	-9.61589
american	-9.61784
woman	-9.61939
mos	-9.61949
ras	-9.62083
try	-9.62195
ling	-9.62303
taken	-9.6243
doubt	-9.6261
bor	-9.62754
feel	-9.63012
nunquam	-9.63014
les	-9.63028
uno	-9.63072
modi	-9.63294
church	-9.63459
doing	-9.63604
dici	-9.63768
domine	-9.63891
pra	-9.63915
hor	-9.63938
minima	-9.64096
om	-9.64108
har	-9.64298
family	-9.64393
move	-9.64411
loco	-9.64499
cupiditate	-9.64769
temple	-9.65
prayer	-9.65082
country	-9.6509
hundred	-9.65124
thousand	-9.6519
anni	-9.65315
numquid	-9.65386
leave	-9.65473
dixerunt	-9.65644
misericordiam	-9.65673
quisquam	-9.65791
swear	-9.65791
cetera	-9.65791
lig	-9.6582
batur	-9.65848
cia	-9.65987
mil	-9.66007
open	-9.66027
ance	-9.66073
enemy	-9.66185
forma	-9.66213
quinque	-9.66266
serve	-9.66308
tionem	-9.66508
living	-9.66529
nature	-9.66601
natura	-9.66719
qual	-9.66723
ho	-9.66802
porta	-9.66856
suum	-9.66856
hora	-9.66964
wife	-9.66966
mortuus	-9.67029
ju	-9.67165
ontes	-9.67237
sex	-9.67251
ys	-9.67269
ios	-9.67304
offer	-9.67334
remember	-9.67345
servant	-9.67687
lay	-9.67885
jerusalem	-9.67922
voice	-9.68037
seven	-9.68345
camp	-9.68596
known	-9.68933
terram	-9.68996
nomine	-9.69045
kal	-9.69146
trust	-9.69157
army	-9.69302
religion	-9.69324
suis	-9.69345
conf	-9.69442
consider	-9.69747
nonne	-9.69903
quot	-9.69973
ula	-9.70328
imus	-9.70374
dicta	-9.70376
puer	-9.70408
river	-9.7056
respond	-9.70659
cha	-9.70728
tal	-9.70848
sleep	-9.70991
ign	-9.71015
nus	-9.71095
christian	-9.71122
always	-9.71289
az	-9.714
altar	-9.71441
scio	-9.7156
vin	-9.71756
hands	-9.7199
times	-9.72016
aqua	-9.72151
atio	-9.72208
anyone	-9.72279
possit	-9.72552
ui	-9.72575
fic	-9.7261
halt	-9.72781
tag	-9.72894
school	-9.73009
egypt	-9.73136
nova	-9.73439
mala	-9.73704
bear	-9.73751
pos	-9.73909
works	-9.74045
kl	-9.74128
misericordia	-9.74203
written	-9.74304
sc	-9.74329
jur	-9.74347
understand	-9.74374
glory	-9.74384
rvn	-9.74422
descend	-9.74644
become	-9.74654
fil	-9.74711
ang	-9.74908
fan	-9.75505
wanted	-9.75675
illud	-9.75752
culpa	-9.75877
mary	-9.7597
ring	-9.76047
aliquando	-9.76111
possunt	-9.76295
thomas	-9.76577
domus	-9.76695
minor	-9.76698
facile	-9.76726
write	-9.76949
adhuc	-9.76952
cent	-9.77104
save	-9.77181
sun	-9.77212
dominum	-9.77219
ground	-9.77529
fat	-9.7756
whose	-9.77587
yourself	-9.7763
wrong	-9.77794
oyd	-9.77978
paid	-9.78042
reason	-9.78105
stand	-9.78115
ka	-9.78166
uen	-9.78178
small	-9.78455
poly	-9.78467
voca	-9.78532
ones	-9.78546
possible	-9.78747
tayta	-9.7875
sort	-9.78803
except	-9.78881
species	-9.78918
uer	-9.78945
libero	-9.78961
brothers	-9.79056
music	-9.79374
gentes	-9.7943
exist	-9.79619
each	-9.79635
matter	-9.79642
consul	-9.79667
voluptatem	-9.79732
lia	-9.79739
vult	-9.79745
round	-9.79826
facilis	-9.80006
aytvn	-9.80019
vidi	-9.8007
unum	-9.80319
young	-9.80391
show	-9.80408
mercy	-9.80469
latin	-9.80497
child	-9.80674
amus	-9.80771
mol	-9.80829
play	-9.80834
conc	-9.80904
aris	-9.80904
tia	-9.80928
sapiente	-9.81186
daughter	-9.81346
meo	-9.81418
ioy	-9.81529
bonum	-9.81679
arma	-9.81703
deum	-9.81724
faciam	-9.81808
color	-9.81849
whatever	-9.82029
quin	-9.82076
misit	-9.82205
iesus	-9.82263
certe	-9.82266
nescio	-9.82277
sight	-9.82394
natural	-9.82446
hab	-9.82462
disc	-9.82584
region	-9.82656
ny	-9.82716
means	-9.83047
ki	-9.83083
antes	-9.83314
strong	-9.83346
jacob	-9.83386
circum	-9.83608
someone	-9.83675
front	-9.83913
turned	-9.83948
women	-9.84137
deinde	-9.84175
animal	-9.84181
omni	-9.84224
ner	-9.84386
bil	-9.84394
later	-9.84705
ua	-9.84848
division	-9.84856
genua	-9.84862
hell	-9.84981
common	-9.84996
patri	-9.8521
miser	-9.85212
lab	-9.85349
ira	-9.85468
myself	-9.85782
saepe	-9.85849
secunda	-9.8587
chi	-9.86079
visit	-9.86175
impl	-9.86234
account	-9.86325
za	-9.86329
hast	-9.86343
gold	-9.86356
nia	-9.86586
opus	-9.86604
zi	-9.86632
grand	-9.86662
meam	-9.8667
tro	-9.86687
aytois	-9.86739
girl	-9.86745
sset	-9.86773
mai	-9.86871
amo	-9.8693
used	-9.86986
propria	-9.87249
verba	-9.87303
italia	-9.87464
filio	-9.87531
dicam	-9.87586
constitu	-9.87603
ok	-9.87655
change	-9.87695
flectamus	-9.87865
pugna	-9.87934
mari	-9.87983
africa	-9.88048
moi	-9.88216
already	-9.88265
primum	-9.88454
knew	-9.88523
accept	-9.88757
ipsa	-9.88805
consequatur	-9.88809
tru	-9.88861
familia	-9.89048
language	-9.89094
receive	-9.8932
video	-9.89386
locutus	-9.89423
battle	-9.89437
star	-9.89517
occaecati	-9.89583
stop	-9.8972
minister	-9.8981
became	-9.89816
possum	-9.89826
domo	-9.8983
cula	-9.899
filios	-9.89966
onta	-9.90008
sibi	-9.90024
question	-9.90074
sp	-9.90075
milia	-9.90244
sion	-9.9028
quattuor	-9.90326
aliquis	-9.90353
videre	-9.9046
simul	-9.90478
vidit	-9.90547
line	-9.90558
porro	-9.90619
oik	-9.90684
patrem	-9.90705
food	-9.90741
beautiful	-9.90849
everything	-9.90869
lis	-9.90913
van	-9.90975
fin	-9.9105
few	-9.91091
peter	-9.91123
multum	-9.91174
ck	-9.91221
dedit	-9.91231
ley	-9.91248
flesh	-9.91301
expect	-9.91486
boy	-9.91511
wait	-9.91556
ward	-9.91599
acc	-9.91655
secret	-9.91671
vari	-9.91684
pray	-9.91686
unus	-9.91716
cities	-9.91855
size	-9.91857
books	-9.9194
totam	-9.92005
loqui	-9.92047
habes	-9.92106
audit	-9.92271
oysin	-9.92302
dan	-9.92349
knowledge	-9.92377
command	-9.92437
enter	-9.92482
illius	-9.92648
posse	-9.92813
omnibus	-9.92887
ung	-9.92987
won	-9.92992
cid	-9.93021
velit	-9.93064
medio	-9.93177
propheta	-9.93266
dar	-9.93272
worship	-9.93411
avi	-9.93458
rid	-9.93555
credit	-9.93581
nn	-9.9359
rather	-9.936
greater	-9.93927
extra	-9.94199
ster	-9.94278
mhn	-9.94317
listen	-9.94325
met	-9.94334
court	-9.94375
issima	-9.94591
persona	-9.94663
doctor	-9.94711
morte	-9.94773
received	-9.94808
adam	-9.94812
special	-9.94827
tempora	-9.94852
multos	-9.9499
nations	-9.95129
oremus	-9.95145
dec	-9.95171
fact	-9.95185
max	-9.95358
priest	-9.95374
wise	-9.95377
close	-9.95392
fair	-9.95501
pist	-9.95747
mel	-9.95831
dy	-9.95895
populo	-9.9609
venire	-9.96207
iter	-9.96262
aaron	-9.9629
bunt	-9.96291
wa	-9.96326
epei	-9.96326
above	-9.96528
fell	-9.96699
vent	-9.96795
sam	-9.96867
verse	-9.96966
indeed	-9.97006
videt	-9.97018
laborum	-9.97423
phon	-9.97437
ipsi	-9.97514
asia	-9.97597
prior	-9.97632
rep	-9.97692
ratio	-9.97709
tunc	-9.97717
volo	-9.97762
fy	-9.97829
vera	-9.97987
state	-9.98056
created	-9.98135
arx	-9.98214
mundo	-9.98232
dicis	-9.98295
rom	-9.98296
praise	-9.98377
job	-9.98396
fur	-9.98587
door	-9.98618
efh	-9.9862
action	-9.98678
everyone	-9.98865
pagina	-9.98973
roma	-9.99029
septem	-9.99067
idea	-9.99093
ky	-9.9916
insula	-9.993
mater	-9.99322
item	-9.99329
talk	-9.9935
caelo	-9.99395
angel	-9.99408
fathers	-9.99457
retur	-9.9948
master	-9.99505
kh	-9.99587
example	-9.99761
abi	-9.9992
ntem	-9.9993
viri	-9.99938
populi	-9.99959
rh	-10.0002
send	-10.0022
position	-10.0022
uc	-10.0024
gra	-10.0025
plac	-10.0028
libro	-10.0039
media	-10.0045
ora	-10.005
manus	-10.0057
dixitque	-10.0059
killed	-10.0063
rain	-10.0067
held	-10.0073
follow	-10.0076
iusto	-10.0076
certain	-10.0098
illis	-10.0112
psalm	-10.012
offering	-10.012
magni	-10.0129
during	-10.0142
morning	-10.0144
lit	-10.0145
gam	-10.0146
judah	-10.0153
mission	-10.0153
aria	-10.0158
mad	-10.016
least	-10.0201
ls	-10.0202
pul	-10.0216
sins	-10.0248
spoke	-10.0251
solum	-10.0255
anna	-10.0255
inquit	-10.0255
cens	-10.0266
nai	-10.0266
short	-10.0266
gal	-10.0275
pueri	-10.0276
partes	-10.0278
hate	-10.028
potes	-10.0283
uri	-10.0292
magna	-10.0302
vestra	-10.0302
doc	-10.0303
filia	-10.0303
scit	-10.0306
cup	-10.031
ps	-10.0311
char	-10.0314
convert	-10.0322
major	-10.0326
service	-10.0331
melior	-10.0334
large	-10.0346
happened	-10.0347
room	-10.0348
dra	-10.036
problems	-10.036
hsan	-10.0365
oper	-10.0373
lib	-10.0377
mulier	-10.0381
ascend	-10.039
key	-10.0419
ax	-10.0429
ago	-10.0444
custodi	-10.0448
scribe	-10.0452
patris	-10.0454
unc	-10.0468
blessed	-10.0469
tertio	-10.047
wood	-10.0476
start	-10.0478
similique	-10.0479
christi	-10.049
duas	-10.0492
grav	-10.0501
dicunt	-10.0515
verbum	-10.052
servants	-10.0522
share	-10.0525
intra	-10.053
happy	-10.0534
moment	-10.054
hy	-10.0541
fun	-10.0551
data	-10.0552
provincia	-10.0564
rob	-10.0566
mark	-10.0579
gl	-10.0597
uni	-10.0613
itatis	-10.0615
gloria	-10.0616
view	-10.0621
sai	-10.0621
necessary	-10.0622
pas	-10.0632
ura	-10.0636
oysi	-10.0641
nesciunt	-10.0641
stis	-10.0643
faciem	-10.0647
laud	-10.066
uti	-10.0678
coram	-10.0682
populum	-10.0684
ix	-10.0687
nti	-10.0689
bantur	-10.0693
xv	-10.0698
ntibus	-10.0699
bul	-10.0699
averunt	-10.0715
gone	-10.0717
verit	-10.0718
built	-10.0724
ario	-10.0739
isn	-10.0747
stay	-10.0749
bon	-10.075
difficult	-10.0759
potentia	-10.0769
nostro	-10.077
tel	-10.0772
ric	-10.0775
scis	-10.0776
consequuntur	-10.0784
self	-10.0787
mont	-10.0789
judgment	-10.0792
following	-10.0792
began	-10.0803
field	-10.0814
grace	-10.0816
south	-10.0816
ama	-10.0818
pecuniam	-10.083
hol	-10.0831
kau	-10.0835
makes	-10.084
scire	-10.0843
hom	-10.0854
toyto	-10.087
bam	-10.0871
manifest	-10.0891
force	-10.0897
fecerunt	-10.09
righteousness	-10.09
future	-10.0912
along	-10.0919
mouth	-10.0919
oculos	-10.0923
loqu	-10.0932
mens	-10.0934
optio	-10.0936
kra	-10.0943
nomina	-10.0963
leo	-10.0975
log	-10.0975
numero	-10.0988
making	-10.0996
watch	-10.0996
len	-10.0999
iuxta	-10.1
uy	-10.1009
wish	-10.1012
pag	-10.1018
ff	-10.1022
hominem	-10.1025
isaac	-10.1032
within	-10.1037
pars	-10.1047
fast	-10.105
early	-10.106
fuisse	-10.1065
beat	-10.1069
populus	-10.1079
consilium	-10.109
often	-10.1107
satis	-10.1115
fici	-10.1117
opinion	-10.1118
ois	-10.112
fieri	-10.1122
lac	-10.1131
gratia	-10.1133
generation	-10.1136
hanc	-10.1141
mia	-10.1155
ped	-10.116
national	-10.1167
walk	-10.1169
joseph	-10.1179
estne	-10.1182
ratione	-10.1192
iacob	-10.12
ara	-10.1212
uv	-10.1214
writing	-10.1215
lan	-10.1217
wall	-10.1221
ania	-10.1225
historia	-10.1228
huius	-10.123
soon	-10.1235
sister	-10.1236
record	-10.1238
thank	-10.1247
hir	-10.1248
franc	-10.1254
hos	-10.1257
beatae	-10.1262
italy	-10.1272
wind	-10.1296
suas	-10.13
pet	-10.1302
creator	-10.1303
lost	-10.1319
husband	-10.1321
north	-10.1325
filium	-10.1364
civil	-10.1377
postquam	-10.1391
kar	-10.1393
glad	-10.1397
firm	-10.1397
whether	-10.1404
lum	-10.1421
sola	-10.1436
regis	-10.1436
comment	-10.144
ard	-10.1441
veniet	-10.1443
big	-10.1448
refer	-10.1452
imagin	-10.1457
uxor	-10.1467
passion	-10.1468
aliqua	-10.1471
sacrifice	-10.1474
lus	-10.1476
saved	-10.1477
thr	-10.1479
saith	-10.1492
rip	-10.1494
ionem	-10.1496
enemies	-10.1512
christus	-10.152
iii	-10.1536
subject	-10.1541
sta	-10.1551
nation	-10.1553
bonus	-10.1557
righteous	-10.1558
itatem	-10.1562
gods	-10.1566
illos	-10.1573
rap	-10.1584
sometimes	-10.1587
miss	-10.1594
publica	-10.1596
ntia	-10.1602
cho	-10.1613
capit	-10.1624
false	-10.1626
satan	-10.1627
mp	-10.163
explicabo	-10.1633
tent	-10.1648
soluta	-10.1649
mori	-10.1654
salva	-10.1663
ida	-10.168
island	-10.1683
ban	-10.1685
simile	-10.169
count	-10.1693
fine	-10.1695
romans	-10.1699
wi	-10.17
wisdom	-10.1741
america	-10.1754
han	-10.1754
desire	-10.1776
rich	-10.1785
rig	-10.1791
ren	-10.1795
hominis	-10.18
hour	-10.1806
pel	-10.1809
office	-10.1812
fugit	-10.1813
paper	-10.1816
culum	-10.1819
onia	-10.1827
divine	-10.1838
oyden	-10.1844
den	-10.1852
quanto	-10.1853
sound	-10.1857
clear	-10.1863
aytoys	-10.1869
kept	-10.1871
tuos	-10.1891
union	-10.1904
multo	-10.1919
dolores	-10.1926
kei	-10.193
spiritual	-10.1937
zo	-10.1939
difficile	-10.1949
white	-10.1952
cura	-10.1956
rec	-10.196
possession	-10.1967
attend	-10.1974
ji	-10.1976
tria	-10.1979
allah	-10.198
bound	-10.1982
inversam	-10.1995
desert	-10.2004
pop	-10.201
cop	-10.2011
dormi	-10.2014
either	-10.2016
quidam	-10.2024
although	-10.2028
musica	-10.203
illam	-10.204
sententia	-10.2046
prov	-10.2046
rio	-10.2051
tanta	-10.2052
alias	-10.2058
ark	-10.206
superior	-10.206
town	-10.2064
gg	-10.2065
ig	-10.2069
respect	-10.2072
lar	-10.2081
oil	-10.2086
itself	-10.2097
sym	-10.21
pell	-10.2106
arch	-10.2108
atum	-10.2117
charge	-10.2123
ador	-10.2133
forward	-10.2135
oratio	-10.2145
honest	-10.2147
impedit	-10.2158
horse	-10.216
europa	-10.2162
prison	-10.2166
pp	-10.217
science	-10.2186
tatis	-10.2191
west	-10.2194
anger	-10.2207
press	-10.2213
ways	-10.2214
ial	-10.2217
regard	-10.2217
looking	-10.222
ella	-10.222
quibusdam	-10.2222
ler	-10.2224
schola	-10.2234
toll	-10.2236
former	-10.2242
deliver	-10.2248
half	-10.2249
sell	-10.2254
tax	-10.2259
soldiers	-10.2265
ow	-10.2271
abo	-10.2273
ordine	-10.2273
ships	-10.2274
aliud	-10.2276
virgin	-10.2285
syria	-10.2294
continue	-10.2305
pal	-10.2316
cri	-10.2331
laid	-10.2331
testimonium	-10.2336
fecisti	-10.2347
ultima	-10.2352
materia	-10.2354
priests	-10.2362
py	-10.2365
text	-10.2365
fruit	-10.2366
feet	-10.237
ball	-10.2371
oc	-10.2376
bow	-10.2378
build	-10.2379
decem	-10.2384
stood	-10.2388
tota	-10.2409
lh	-10.2412
ipso	-10.2413
host	-10.2424
reg	-10.2426
pharaoh	-10.2442
dux	-10.2453
ndam	-10.2457
debitis	-10.2473
clean	-10.2483
ally	-10.2485
assumenda	-10.2487
rei	-10.2488
testament	-10.2488
etc	-10.2493
viam	-10.2499
valde	-10.2499
postea	-10.2504
else	-10.2513
male	-10.2513
volu	-10.2518
beginning	-10.2521
surely	-10.2527
sweet	-10.2529
black	-10.2531
magic	-10.2538
business	-10.2541
greg	-10.2541
east	-10.2542
misericors	-10.2546
ars	-10.2547
dicendum	-10.2548
comp	-10.255
past	-10.2551
seek	-10.2552
judge	-10.2554
nom	-10.2557
strength	-10.2559
similar	-10.2564
deal	-10.2571
experience	-10.2572
kas	-10.2573
mount	-10.2574
poor	-10.258
rim	-10.2593
fuerunt	-10.2597
abitur	-10.2599
perferendis	-10.2605
moy	-10.2614
caeli	-10.2616
guard	-10.262
advice	-10.2652
scriptura	-10.2654
maxime	-10.2654
scriptum	-10.2659
alis	-10.2663
rius	-10.2666
aegypti	-10.2678
lest	-10.2679
scientia	-10.2679
pati	-10.2686
specta	-10.2686
sky	-10.2689
toward	-10.269
roy	-10.2697
serva	-10.2702
ager	-10.2707
uerunt	-10.2709
counsel	-10.2713
omne	-10.2728
ationem	-10.2729
ancient	-10.2731
molestiae	-10.2743
worth	-10.2757
mille	-10.2757
ug	-10.2757
compl	-10.2761
justice	-10.2763
tatem	-10.2767
novi	-10.2775
certainly	-10.278
portat	-10.2781
result	-10.2781
cons	-10.2782
divina	-10.2792
amici	-10.2793
ory	-10.2797
jam	-10.28
marriage	-10.2801
pha	-10.2802
curr	-10.2804
lex	-10.2815
rule	-10.2817
gh	-10.2818
bol	-10.2825
poet	-10.2828
ontos	-10.2828
runt	-10.283
chief	-10.2833
eodem	-10.2836
table	-10.2845
fight	-10.2851
frater	-10.286
hid	-10.2865
whoever	-10.2867
low	-10.2869
sy	-10.2871
cit	-10.2872
flu	-10.2878
spoken	-10.2881
wonder	-10.2882
urus	-10.2882
excepturi	-10.2883
lam	-10.2884
pecunia	-10.2886
inveni	-10.2893
voce	-10.2897
luna	-10.2898
cept	-10.29
passed	-10.291
entia	-10.2917
exercise	-10.2919
lives	-10.2929
fid	-10.2932
company	-10.2934
foot	-10.2942
panta	-10.2949
egv	-10.2964
arm	-10.2966
legion	-10.2974
uel	-10.2978
witness	-10.2978
fon	-10.2981
longer	-10.2981
ng	-10.2994
operation	-10.2996
diem	-10.2998
abit	-10.3
patr	-10.3002
arn	-10.3002
history	-10.3005
pho	-10.3008
corporis	-10.301
officiis	-10.3012
returned	-10.302
council	-10.304
important	-10.3041
fund	-10.3042
officia	-10.3042
ontvn	-10.3046
social	-10.305
amen	-10.3054
covenant	-10.3057
letter	-10.3067
august	-10.3069
femina	-10.3073
rock	-10.3073
list	-10.3083
signa	-10.3086
molestias	-10.3086
rang	-10.3088
pic	-10.3091
lived	-10.3093
top	-10.3096
break	-10.3096
loved	-10.3103
cry	-10.3108
summa	-10.3112
alien	-10.3115
habita	-10.3116
joy	-10.3122
cross	-10.3127
venerunt	-10.3128
sense	-10.3136
iure	-10.3144
auri	-10.3147
nolite	-10.3148
needed	-10.3158
mira	-10.3159
prophets	-10.3161
dwell	-10.3162
libera	-10.3163
aren	-10.3165
dom	-10.3172
debet	-10.3184
tales	-10.3186
afraid	-10.3191
ay	-10.3199
clama	-10.3202
supra	-10.3205
path	-10.321
bread	-10.3214
malum	-10.322
ker	-10.3222
finem	-10.3222
alter	-10.3228
catholic	-10.3229
class	-10.3229
taking	-10.3231
enjoy	-10.3234
patient	-10.3251
united	-10.3252
tina	-10.3253
licet	-10.3253
kings	-10.326
mortal	-10.3266
zon	-10.3276
simon	-10.3286
wicked	-10.3288
nata	-10.3289
kill	-10.329
rg	-10.3291
fortuna	-10.3292
yper	-10.3294
party	-10.3297
hierusalem	-10.3303
building	-10.3312
bru	-10.3313
omnium	-10.3317
term	-10.3339
tanto	-10.3343
destroy	-10.3351
caput	-10.3357
surge	-10.3361
cess	-10.3363
debuit	-10.3365
crede	-10.337
spiritus	-10.338
sancti	-10.3389
aliter	-10.3397
creatura	-10.3397
quanta	-10.3403
respons	-10.3404
dio	-10.3405
commanded	-10.3405
eight	-10.3405
suscipit	-10.3407
mu	-10.3423
manner	-10.3427
legend	-10.3439
mata	-10.3442
bro	-10.3443
behind	-10.3451
worthy	-10.3455
sake	-10.3464
believed	-10.347
tuas	-10.3484
potuit	-10.3484
feci	-10.3486
neg	-10.3489
diu	-10.3492
standing	-10.3498
veritatis	-10.3499
main	-10.3506
deep	-10.3519
alio	-10.352
iron	-10.3524
regnum	-10.3528
blog	-10.3543
vocat	-10.3545
repent	-10.3546
hours	-10.3553
issue	-10.3554
pastor	-10.3561
tais	-10.3562
occasion	-10.3562
fully	-10.3565
giving	-10.3579
drive	-10.3582
page	-10.3594
effect	-10.36
knows	-10.3601
choose	-10.3609
nyn	-10.3618
cul	-10.3625
fellow	-10.3626
ontas	-10.3628
regem	-10.363
mac	-10.3634
web	-10.3637
ik	-10.3637
story	-10.364
cos	-10.3646
las	-10.3647
lim	-10.3653
ctor	-10.3657
partem	-10.3659
versa	-10.366
annum	-10.3661
ought	-10.3663
ier	-10.3683
rag	-10.3697
mina	-10.3698
pat	-10.37
silver	-10.37
forget	-10.3704
parts	-10.3708
spring	-10.371
month	-10.371
tali	-10.3714
diebus	-10.3726
march	-10.3728
road	-10.3736
hat	-10.3738
stone	-10.3749
gress	-10.3752
lies	-10.3752
disciples	-10.3754
eadem	-10.3756
omnem	-10.3762
iens	-10.3775
six	-10.3784
lead	-10.3787
observa	-10.379
rus	-10.3795
ocean	-10.3796
provide	-10.3797
mortem	-10.38
defend	-10.3802
principal	-10.3802
sword	-10.3812
bu	-10.3819
pace	-10.3824
regi	-10.3824
emperor	-10.3826
soli	-10.3828
cel	-10.3833
xeir	-10.3834
accipi	-10.3839
solus	-10.3842
carne	-10.3845
condition	-10.3847
similiter	-10.3852
tulit	-10.3856
phil	-10.3857
exercitationem	-10.3865
purpose	-10.3869
english	-10.387
babylon	-10.3876
confession	-10.3889
twenty	-10.3891
damn	-10.3892
seems	-10.3894
spero	-10.3899
tempus	-10.3912
contin	-10.3915
interroga	-10.3918
amica	-10.392
support	-10.3928
ken	-10.3929
facie	-10.3934
sequi	-10.3945
working	-10.3955
sive	-10.3957
solomon	-10.3963
group	-10.3974
wants	-10.3976
ud	-10.3982
vocavit	-10.3985
allow	-10.3986
condemn	-10.3988
nhs	-10.3989
iudica	-10.3989
pes	-10.3991
transi	-10.3992
od	-10.4007
image	-10.4008
tionis	-10.4012
learn	-10.4013
icus	-10.4016
grad	-10.4023
argu	-10.4026
places	-10.4028
kos	-10.4035
concerning	-10.4044
escape	-10.4047
progress	-10.4055
states	-10.4056
ding	-10.4059
dices	-10.4065
italian	-10.4067
animi	-10.4068
bed	-10.4068
menos	-10.4077
organ	-10.4082
utrum	-10.4087
roll	-10.4097
imperator	-10.4098
iterum	-10.4101
multis	-10.4103
credere	-10.4108
honour	-10.4109
collect	-10.4114
tuis	-10.412
primi	-10.4125
corn	-10.4143
vision	-10.4143
probat	-10.4162
personal	-10.4163
lamb	-10.4178
measure	-10.4184
hdh	-10.4184
race	-10.4189
mundi	-10.4191
menoi	-10.42
tract	-10.4206
distinctio	-10.4213
cad	-10.4216
toytoy	-10.4216
moon	-10.4221
meaning	-10.4228
legi	-10.4238
gy	-10.4255
promise	-10.4258
kr	-10.4262
spera	-10.4264
aytos	-10.4272
single	-10.4275
buy	-10.4279
grow	-10.428
mul	-10.4286
essent	-10.4287
comfort	-10.4297
bel	-10.4298
immediately	-10.4305
fled	-10.431
divers	-10.4316
cru	-10.4334
inventor	-10.4336
hel	-10.4358
ities	-10.4361
trouble	-10.4376
malista	-10.4376
certa	-10.4381
domina	-10.4382
orem	-10.4383
final	-10.4384
plain	-10.4385
join	-10.439
posuit	-10.441
numbers	-10.4413
corrupti	-10.4414
require	-10.442
mighty	-10.4435
polit	-10.4437
conspectu	-10.444
birth	-10.4443
dear	-10.4443
rub	-10.4444
carried	-10.4445
tera	-10.4455
conclusion	-10.4458
str	-10.4463
fas	-10.447
servus	-10.4471
wide	-10.4471
mega	-10.4474
accus	-10.4474
german	-10.4477
material	-10.4484
vade	-10.4486
teacher	-10.4492
asuai	-10.4496
quaerat	-10.4498
ctus	-10.4498
gnv	-10.4503
arms	-10.4506
genere	-10.4513
named	-10.4517
moral	-10.452
content	-10.4525
happen	-10.4529
incidunt	-10.4543
vivere	-10.4547
outside	-10.4549
iah	-10.4554
difference	-10.4556
praesent	-10.4557
urg	-10.4557
fatuae	-10.4562
sanctuary	-10.457
miles	-10.4575
official	-10.4579
fuga	-10.458
omenoi	-10.4581
xc	-10.4583
cis	-10.4585
iura	-10.4587
bib	-10.4596
seu	-10.4598
vident	-10.4605
lv	-10.4611
truly	-10.4616
temporibus	-10.462
arius	-10.4621
correct	-10.4623
placeat	-10.4628
universa	-10.4631
culo	-10.4632
spec	-10.4636
midst	-10.4645
sacrament	-10.4645
issimo	-10.4646
oytv	-10.4649
mali	-10.465
appointed	-10.4652
safe	-10.4654
hominum	-10.4661
credo	-10.4666
faithful	-10.4675
ultra	-10.4682
birds	-10.4694
season	-10.4694
scripta	-10.4694
varia	-10.4697
relation	-10.4707
wo	-10.4713
pulchra	-10.4716
ambula	-10.4728
xar	-10.4728
principes	-10.4734
praecidi	-10.4739
process	-10.4762
cro	-10.4784
gas	-10.4797
totum	-10.4811
ulum	-10.4811
sque	-10.4812
angels	-10.4813
isset	-10.4814
chosen	-10.4816
proper	-10.4823
product	-10.4823
grat	-10.4827
locum	-10.4828
mir	-10.4828
vas	-10.4831
sha	-10.4833
possess	-10.4834
chance	-10.4835
hill	-10.4835
kv	-10.4837
omenos	-10.4843
magister	-10.4849
mic	-10.485
ized	-10.4853
principio	-10.4855
fal	-10.4855
dream	-10.486
angeli	-10.4864
fail	-10.4865
filiis	-10.4869
breath	-10.487
marcus	-10.4872
scilicet	-10.4872
beyond	-10.4874
period	-10.4881
interpellat	-10.4882
yx	-10.4886
bitur	-10.4888
scribere	-10.4888
osa	-10.4888
easily	-10.4893
park	-10.4896
pit	-10.49
fault	-10.49
novum	-10.4903
tiones	-10.4905
international	-10.4907
jan	-10.4908
hk	-10.4911
character	-10.4914
maybe	-10.4924
mess	-10.4927
aves	-10.4929
feeling	-10.4932
inside	-10.4932
lion	-10.4933
getting	-10.4934
dolorem	-10.4953
mountain	-10.4956
kn	-10.4961
million	-10.4962
hunc	-10.4962
ging	-10.497
raised	-10.4978
ties	-10.4981
rod	-10.4989
pens	-10.4989
multitude	-10.4998
hair	-10.4999
lots	-10.5001
dark	-10.5007
jews	-10.5009
parents	-10.5011
fourth	-10.5019
onoma	-10.502
ready	-10.5034
minu	-10.5037
libri	-10.5039
cogita	-10.5041
sorry	-10.5047
praetor	-10.5047
gratiam	-10.5055
ntium	-10.5061
xo	-10.507
further	-10.5072
apollo	-10.5073
animals	-10.5074
vitam	-10.5079
thanks	-10.5087
plant	-10.5092
communi	-10.5102
french	-10.5106
burn	-10.5111
cyrus	-10.5114
sanguin	-10.5117
timor	-10.5118
delivered	-10.5122
yo	-10.5123
previous	-10.5126
fel	-10.5129
rentur	-10.5129
omen	-10.514
cover	-10.5145
misericordem	-10.5159
argument	-10.5171
simple	-10.5171
cold	-10.518
vil	-10.518
amplius	-10.5182
aristo	-10.5188
recusandae	-10.519
accepit	-10.5191
cta	-10.5191
cub	-10.5194
ash	-10.5194
dig	-10.5202
viva	-10.5203
vigil	-10.5204
gun	-10.5224
reach	-10.5234
ries	-10.5237
adult	-10.5239
kor	-10.5249
title	-10.5262
reading	-10.5269
kin	-10.5277
tica	-10.5282
iesu	-10.5286
fidem	-10.5293
lip	-10.5304
mat	-10.5306
nati	-10.5306
hl	-10.5308
rome	-10.5309
ning	-10.5311
design	-10.5315
praedica	-10.5318
auxilium	-10.5319
utique	-10.5323
tongue	-10.5328
praesentium	-10.533
aud	-10.5331
animo	-10.5333
vidisti	-10.5335
yn	-10.5336
news	-10.5352
coll	-10.5352
vesti	-10.5358
ified	-10.536
board	-10.5363
senate	-10.5365
uxorem	-10.5368
dry	-10.537
ification	-10.537
duxit	-10.5372
hr	-10.5377
turba	-10.5389
vive	-10.5392
wear	-10.5398
noster	-10.5398
finis	-10.5402
choice	-10.5405
ayth	-10.5408
homine	-10.5409
report	-10.5411
looked	-10.5412
polla	-10.5414
geni	-10.5417
loquitur	-10.5419
brethren	-10.5427
diversa	-10.5434
sumus	-10.5439
bur	-10.5439
lon	-10.5444
iustitia	-10.5446
origin	-10.545
crime	-10.5451
alii	-10.546
waiting	-10.5469
eternal	-10.5472
followed	-10.5473
nomi	-10.5481
jen	-10.5481
wrote	-10.5483
merit	-10.5487
exspecta	-10.5489
europe	-10.549
logi	-10.5491
success	-10.5495
sapientia	-10.5499
arium	-10.5508
greek	-10.5509
forever	-10.5517
narra	-10.5521
attack	-10.5522
dens	-10.5529
gives	-10.553
memor	-10.553
throne	-10.5531
filled	-10.5534
blanditiis	-10.5535
quaedam	-10.5535
favor	-10.5536
album	-10.554
middle	-10.554
posside	-10.554
stupid	-10.5543
facies	-10.555
levi	-10.5555
thine	-10.5559
ced	-10.5566
habit	-10.5567
til	-10.5572
odor	-10.5574
quorum	-10.5576
immortal	-10.5577
spread	-10.5578
actually	-10.5583
soror	-10.5589
polin	-10.5599
oportet	-10.5599
hurt	-10.5605
audire	-10.5607
prob	-10.5609
recte	-10.561
dog	-10.5612
ioys	-10.5617
hearing	-10.562
cord	-10.563
system	-10.5633
spiritu	-10.5634
lev	-10.5636
ncy	-10.5639
space	-10.564
ulus	-10.5647
cost	-10.5648
uk	-10.5649
dicuntur	-10.5649
authority	-10.5653
auro	-10.5653
ensis	-10.5653
qualis	-10.5659
dyn	-10.5663
formed	-10.5665
fru	-10.5666
danger	-10.5667
restitu	-10.567
matri	-10.5675
station	-10.5678
oyte	-10.5686
fly	-10.5692
perspiciatis	-10.5695
exactly	-10.5696
pyr	-10.5696
speaking	-10.5702
rationem	-10.5707
menti	-10.5711
isai	-10.5711
missa	-10.5712
several	-10.5713
ontai	-10.5714
substantia	-10.5715
broken	-10.5718
proud	-10.5722
regna	-10.5724
vestrum	-10.5728
dixi	-10.5746
continua	-10.5747
crazy	-10.5751
add	-10.5751
virum	-10.5751
auto	-10.5752
nh	-10.5756
sch	-10.576
loy	-10.576
travel	-10.577
paulus	-10.5772
iva	-10.5778
ref	-10.5779
issimi	-10.5789
fuerint	-10.5794
cc	-10.5797
pin	-10.5799
walls	-10.5802
occ	-10.5802
hence	-10.5804
presence	-10.5806
week	-10.5807
praeter	-10.5816
medium	-10.5819
gall	-10.582
ions	-10.5825
ejus	-10.5825
daughters	-10.5826
solution	-10.5833
petit	-10.5835
tabula	-10.5837
lud	-10.5839
mod	-10.5839
opened	-10.584
provident	-10.5842
access	-10.5843
bili	-10.5857
ann	-10.5858
cito	-10.5864
scripture	-10.5867
rra	-10.5867
ku	-10.5872
elect	-10.5872
tertia	-10.5873
dicentes	-10.5873
constant	-10.5876
faciunt	-10.5876
rejoice	-10.5877
adipisci	-10.5883
acta	-10.589
salvation	-10.5893
ox	-10.5897
sacred	-10.5899
essential	-10.5899
compar	-10.5901
vocem	-10.5904
causam	-10.5904
corpore	-10.5905
loud	-10.5916
jun	-10.5928
knowing	-10.5936
bia	-10.5938
dispute	-10.5945
article	-10.595
stella	-10.5954
seeing	-10.5958
creation	-10.5959
ordered	-10.5963
understanding	-10.5965
destroyed	-10.5974
fix	-10.5989
differ	-10.599
ges	-10.5992
shed	-10.5994
resist	-10.5995
divided	-10.6002
kak	-10.6004
kids	-10.6004
commodi	-10.6006
victory	-10.6008
rank	-10.6013
interest	-10.6014
liv	-10.6016
samuel	-10.6018
ments	-10.6019
merc	-10.6021
consist	-10.6025
kel	-10.6033
necessaria	-10.6034
differentia	-10.6043
sinistra	-10.6044
gor	-10.6048
strathg	-10.6054
sufficient	-10.6056
veritatem	-10.6058
unit	-10.6064
mot	-10.6065
legis	-10.6065
poihs	-10.6071
greeks	-10.6071
vici	-10.6076
bio	-10.6078
dress	-10.6079
christo	-10.6081
odit	-10.6082
senator	-10.6087
author	-10.6088
pretty	-10.6098
mecum	-10.6103
issime	-10.6105
ology	-10.6109
habitu	-10.6111
puls	-10.6112
zh	-10.6115
sheep	-10.6119
added	-10.6119
revert	-10.6123
popular	-10.6126
repellat	-10.6134
dol	-10.6135
remain	-10.6135
fili	-10.614
dictum	-10.6141
veter	-10.6143
property	-10.6144
aid	-10.6145
pedes	-10.6145
excludit	-10.6151
clothes	-10.6152
questions	-10.6157
memoria	-10.6158
proba	-10.616
problem	-10.6162
fuerat	-10.6164
religio	-10.6165
loi	-10.6166
facti	-10.6172
kon	-10.6177
sim	-10.618
consilio	-10.6183
nuntia	-10.6187
eipen	-10.6188
uli	-10.6193
instead	-10.6194
queen	-10.6195
tric	-10.6197
moved	-10.62
harm	-10.6204
figure	-10.6212
nik	-10.6219
served	-10.6226
congrega	-10.6228
ou	-10.624
poi	-10.6252
yourselves	-10.6255
pont	-10.6259
pauper	-10.626
bilis	-10.626
putas	-10.6263
fish	-10.6265
gens	-10.6272
uerit	-10.6279
atores	-10.6282
ability	-10.6286
trees	-10.6291
inc	-10.6292
twelve	-10.6296
object	-10.6306
vener	-10.6306
multiplic	-10.6307
vul	-10.6309
parent	-10.631
proportion	-10.6313
filo	-10.6315
signum	-10.6333
kyr	-10.6349
pig	-10.6359
ferre	-10.6363
discipuli	-10.6363
xu	-10.6364
fame	-10.6364
studio	-10.6366
nay	-10.6366
victoria	-10.6369
create	-10.6374
smell	-10.6379
wild	-10.6381
hug	-10.6387
noli	-10.6397
thirty	-10.6398
donec	-10.6401
centum	-10.6408
universal	-10.6416
significat	-10.6417
urgent	-10.6417
var	-10.6426
poterit	-10.6435
fabula	-10.6438
sensu	-10.6439
similis	-10.644
alive	-10.644
fh	-10.6441
deserunt	-10.6441
empire	-10.6442
sick	-10.6448
arbor	-10.645
duodecim	-10.6451
offered	-10.6458
salve	-10.6469
bellum	-10.6469
wrath	-10.6473
months	-10.6473
habeat	-10.6475
fool	-10.6479
roga	-10.6482
antequam	-10.6487
claim	-10.6488
maxima	-10.6495
president	-10.6498
aliis	-10.6502
intro	-10.6505
agent	-10.6507
yeah	-10.6509
toytvn	-10.6516
hot	-10.6517
exalt	-10.652
government	-10.652
vivit	-10.6524
annis	-10.6524
suos	-10.6526
forte	-10.6528
needs	-10.6529
modum	-10.6531
fugi	-10.6537
effici	-10.654
laboriosam	-10.654
hum	-10.6541
reward	-10.6557
hur	-10.6561
menvn	-10.6564
urbem	-10.6564
cont	-10.6566
cras	-10.6567
mid	-10.6582
infant	-10.6583
magn	-10.6592
university	-10.6595
cried	-10.6599
agree	-10.6602
invenire	-10.6608
domi	-10.6611
prime	-10.6621
pu	-10.6622
aufer	-10.6622
goes	-10.6631
iac	-10.6633
chor	-10.6637
lio	-10.6638
numera	-10.6642
private	-10.6645
gratias	-10.6647
hood	-10.6647
running	-10.6649
permit	-10.6649
papa	-10.6651
debere	-10.6651
nica	-10.6651
innocent	-10.6655
yr	-10.6666
ayto	-10.6677
extend	-10.668
issimum	-10.6685
arrived	-10.6685
rian	-10.6686
agit	-10.6689
levit	-10.6691
ueoy	-10.6693
dubita	-10.6701
explain	-10.6704
magnam	-10.6709
amico	-10.6711
affect	-10.6713
takes	-10.6715
corpus	-10.6716
blind	-10.6726
modern	-10.6728
necessitatibus	-10.6736
wasn	-10.6743
houses	-10.6754
vix	-10.6754
ical	-10.6756
ignis	-10.676
sermo	-10.6766
unless	-10.6767
bella	-10.6767
level	-10.6768
khn	-10.6774
talent	-10.6774
lata	-10.6777
basil	-10.6782
darkness	-10.6782
pau	-10.6784
clus	-10.6787
comede	-10.679
approach	-10.6792
sail	-10.6794
mountains	-10.6796
mak	-10.6798
regiones	-10.6808
altera	-10.6818
figura	-10.6822
ible	-10.6822
marc	-10.6824
gent	-10.6826
brevi	-10.6826
commit	-10.6827
audivi	-10.6829
urbe	-10.6831
enses	-10.6835
limit	-10.6836
ving	-10.6836
ephraim	-10.6846
tried	-10.6848
certum	-10.6852
ologia	-10.6853
citizens	-10.6856
crat	-10.6861
scriptor	-10.6862
ika	-10.6863
velle	-10.6864
mail	-10.6866
allowed	-10.6867
length	-10.6868
tagged	-10.6873
genus	-10.6875
acts	-10.6875
hge	-10.6876
tribe	-10.6881
socrates	-10.6882
rud	-10.6887
sing	-10.6889
torum	-10.6891
abat	-10.6892
express	-10.6893
congregation	-10.6898
cell	-10.69
constat	-10.6903
ult	-10.6904
reiciendis	-10.6908
silent	-10.6923
ponit	-10.6929
quaer	-10.6937
posita	-10.6942
consectetur	-10.6945
established	-10.6945
nostrum	-10.6946
fig	-10.6951
saluta	-10.6952
increase	-10.6954
produce	-10.6956
petrus	-10.696
sequitur	-10.696
evening	-10.6964
complain	-10.6966
terror	-10.6973
patres	-10.6981
uhnai	-10.6984
blame	-10.6997
dicat	-10.7001
quanti	-10.701
dignissimos	-10.702
existima	-10.7021
mortui	-10.7026
version	-10.7027
akoy	-10.7033
vote	-10.7039
habitat	-10.704
ascendit	-10.7046
urum	-10.7052
octo	-10.7057
horses	-10.7058
oynta	-10.7062
quaestio	-10.7066
pv	-10.7067
uan	-10.7069
revertentur	-10.7075
malo	-10.7086
green	-10.7089
appear	-10.7089
mallon	-10.709
erint	-10.7097
fini	-10.7102
arc	-10.7103
obey	-10.7103
menda	-10.7106
ordinem	-10.7108
corde	-10.7113
avoid	-10.7115
burg	-10.7118
carry	-10.7123
occupa	-10.7136
complete	-10.7137
praeced	-10.7137
viginti	-10.7142
friendship	-10.7142
ged	-10.7152
pisc	-10.7166
reign	-10.7172
lake	-10.7189
required	-10.7191
conduct	-10.7196
replied	-10.7199
pri	-10.72
lying	-10.7213
div	-10.7214
orders	-10.7216
appella	-10.7217
solid	-10.7217
disputa	-10.7226
happens	-10.7228
gather	-10.7229
palm	-10.7235
tig	-10.7236
ymin	-10.7244
baptism	-10.7244
lvn	-10.7244
alios	-10.7245
entered	-10.7251
particular	-10.7251
control	-10.7252
numerus	-10.7253
romani	-10.7254
scient	-10.7264
russia	-10.7265
gain	-10.7269
pomp	-10.727
vast	-10.7279
gravi	-10.7279
cognoscere	-10.7279
jh	-10.7281
confirma	-10.7283
solo	-10.7283
auxilio	-10.7288
fill	-10.7291
towards	-10.7298
thereof	-10.7301
lem	-10.7301
plures	-10.7301
eating	-10.7302
direct	-10.7303
alius	-10.7304
bh	-10.7306
fri	-10.7307
include	-10.7313
peccato	-10.7317
straight	-10.7323
suffer	-10.7326
trade	-10.7328
style	-10.7328
migra	-10.7328
creata	-10.7341
rah	-10.7342
debt	-10.7342
trip	-10.7346
besides	-10.7356
confess	-10.736
lacedaemonians	-10.736
consult	-10.7361
check	-10.7364
motion	-10.7364
zeus	-10.7369
profit	-10.7369
viros	-10.7371
amat	-10.7373
waters	-10.7377
daniel	-10.7378
loss	-10.7381
mention	-10.7382
fron	-10.7386
venient	-10.7388
gathered	-10.739
tens	-10.7392
wealth	-10.7393
distinct	-10.7398
faciat	-10.7398
aperiam	-10.7399
till	-10.74
tyrann	-10.7403
momenti	-10.741
learned	-10.741
vimus	-10.7413
jer	-10.7418
quickly	-10.742
looks	-10.7423
divi	-10.7425
dokei	-10.7427
explica	-10.7437
january	-10.7445
feast	-10.7447
inferior	-10.7447
touch	-10.7451
murder	-10.7456
lamp	-10.7456
bodies	-10.746
absque	-10.746
lava	-10.7466
umquam	-10.7468
finally	-10.7468
draw	-10.7469
ipsam	-10.7469
especially	-10.7485
mag	-10.7487
zer	-10.7487
ilia	-10.7502
prevent	-10.7502
various	-10.7507
chus	-10.7509
deserve	-10.7509
testimony	-10.7512
members	-10.7522
pemp	-10.7522
arg	-10.753
scripsit	-10.7531
warm	-10.7533
custom	-10.7536
agvn	-10.7538
primus	-10.7539
song	-10.754
noble	-10.7544
ationes	-10.7545
michael	-10.7547
doors	-10.7549
genesuai	-10.7554
nominat	-10.7559
placed	-10.7562
essentia	-10.7564
greatest	-10.7564
distance	-10.7567
suspect	-10.7568
quarta	-10.757
rush	-10.7573
poeta	-10.7577
assum	-10.758
pull	-10.7592
nullo	-10.7592
election	-10.7593
lack	-10.7596
disciplina	-10.7598
card	-10.7604
teach	-10.7605
meos	-10.7606
salomon	-10.7609
cen	-10.761
amount	-10.7617
imo	-10.7618
community	-10.7621
interpret	-10.7622
nar	-10.7624
flight	-10.7625
grac	-10.7625
perhaps	-10.7625
devil	-10.7627
patre	-10.7635
military	-10.7636
paris	-10.7641
illic	-10.7642
local	-10.7646
humana	-10.7647
sentence	-10.7651
desidera	-10.7655
search	-10.7656
pleasure	-10.7656
pid	-10.7659
rational	-10.7663
mhd	-10.7668
oriental	-10.7669
believers	-10.7669
blasphem	-10.7674
kan	-10.7677
source	-10.768
fec	-10.768
tius	-10.769
serving	-10.7694
confund	-10.7695
value	-10.7704
laugh	-10.7706
git	-10.7712
pend	-10.7714
circu	-10.7716
ayta	-10.7716
lift	-10.7717
physic	-10.772
sitting	-10.773
lent	-10.7737
dinner	-10.7738
african	-10.7738
religious	-10.7738
fifth	-10.7748
couldn	-10.7749
guys	-10.775
juda	-10.7752
european	-10.7754
genera	-10.7756
anurvp	-10.776
latter	-10.7764
aythn	-10.7767
cuncta	-10.7777
script	-10.7791
ludi	-10.7792
daily	-10.7794
inhabitants	-10.7798
expl	-10.7805
quaerit	-10.7808
gates	-10.7813
mors	-10.7817
issimus	-10.7826
dent	-10.7829
prius	-10.7831
prince	-10.7834
throughout	-10.7838
flow	-10.7843
sermon	-10.7847
fain	-10.7851
bell	-10.7854
beati	-10.7859
mati	-10.786
abs	-10.7861
treat	-10.7862
thinking	-10.7864
trial	-10.7865
loca	-10.7875
ray	-10.7877
allo	-10.7883
ib	-10.7884
gign	-10.7893
zz	-10.7897
release	-10.7902
mortua	-10.7902
comm	-10.7905
hal	-10.7908
dura	-10.7913
vsper	-10.7914
individual	-10.7916
trin	-10.7918
expedita	-10.7925
ignore	-10.7926
intend	-10.793
munda	-10.7933
ionis	-10.7935
wedding	-10.7938
online	-10.7941
ndus	-10.7945
depend	-10.7952
nobody	-10.7953
bono	-10.7955
valid	-10.7958
lhs	-10.7959
continent	-10.7961
delectus	-10.7975
civ	-10.7976
corrupt	-10.7978
practice	-10.7985
lux	-10.7988
study	-10.7992
contain	-10.7993
uisse	-10.7997
pick	-10.7997
resurrection	-10.8002
victim	-10.8003
abba	-10.8005
pecca	-10.8007
vinum	-10.8008
appeared	-10.8008
foreign	-10.8012
logo	-10.8026
rium	-10.8026
politica	-10.8028
dynam	-10.803
iulia	-10.8033
biles	-10.8035
signs	-10.8038
tribus	-10.8039
omnipotens	-10.804
samaria	-10.8042
denique	-10.8045
familiar	-10.8046
magno	-10.8048
height	-10.8048
bos	-10.8049
felt	-10.8054
menoys	-10.8055
definition	-10.8056
lor	-10.8061
store	-10.8061
germania	-10.8063
locus	-10.807
talking	-10.8076
stud	-10.8085
burnt	-10.8097
amicos	-10.8108
london	-10.8111
oath	-10.8113
speech	-10.8119
frequent	-10.8122
specie	-10.8134
aurum	-10.8136
bull	-10.8139
names	-10.8139
ski	-10.8141
clari	-10.8141
vinci	-10.8143
caelum	-10.8146
motus	-10.8156
repudiandae	-10.8164
utter	-10.8165
nutri	-10.8167
oribus	-10.8168
suscita	-10.8169
fortasse	-10.8176
regno	-10.8176
boyl	-10.8177
ourselves	-10.8184
carcer	-10.8185
pollu	-10.8186
fratrem	-10.8196
belli	-10.8197
gia	-10.82
cod	-10.82
female	-10.8202
diana	-10.8202
zen	-10.8206
posset	-10.8207
corpora	-10.8207
missi	-10.8212
promised	-10.8216
aff	-10.8217
lecta	-10.8225
reprehenderit	-10.8226
filiorum	-10.8231
mum	-10.8233
series	-10.8239
effectus	-10.8245
sulla	-10.8245
yl	-10.825
spir	-10.8251
suddenly	-10.8253
declare	-10.8256
patria	-10.8256
assembly	-10.8258
gan	-10.826
martyr	-10.8269
province	-10.8271
lauda	-10.8272
price	-10.8275
sentio	-10.8276
baby	-10.8276
periculo	-10.8278
exit	-10.8282
scent	-10.8287
wash	-10.829
universi	-10.8299
double	-10.8299
cion	-10.8301
nearly	-10.8301
istic	-10.831
higher	-10.8311
oytvs	-10.8316
conserva	-10.8317
gaz	-10.832
forces	-10.8321
georg	-10.8326
nvn	-10.8328
legem	-10.833
spici	-10.8331
games	-10.8333
genuit	-10.8334
proposito	-10.8337
cease	-10.8339
descendit	-10.8341
delight	-10.8342
notice	-10.8343
facis	-10.8346
lines	-10.8346
radi	-10.835
college	-10.8352
ioannes	-10.8363
repet	-10.8367
orient	-10.8371
hinc	-10.8372
erga	-10.8373
welcome	-10.8375
xrh	-10.8378
salt	-10.8378
polis	-10.8382
favour	-10.8384
incipi	-10.8386
saint	-10.8387
instrument	-10.8391
grant	-10.8403
oyx	-10.8403
excusa	-10.8404
humili	-10.8404
yu	-10.841
considered	-10.8411
wouldn	-10.8412
inheritance	-10.8414
mass	-10.8415
contr	-10.842
bank	-10.8423
sisters	-10.8425
excellent	-10.8428
commend	-10.8431
veritate	-10.8436
teron	-10.8437
wilderness	-10.8437
kindness	-10.8443
iudicium	-10.8443
sacerdotes	-10.8446
moab	-10.8454
letters	-10.846
potestate	-10.8462
scen	-10.8462
librum	-10.8462
riv	-10.8465
ippo	-10.8467
ya	-10.8468
perfection	-10.8472
dabo	-10.8475
doctrina	-10.8479
oves	-10.8482
gift	-10.8486
loving	-10.8489
bishop	-10.8491
suscitavit	-10.8492
pacific	-10.8502
weight	-10.8503
fica	-10.8503
forum	-10.8508
nil	-10.8508
vidisse	-10.8513
usu	-10.8515
robert	-10.8515
sinners	-10.8516
ammon	-10.8519
vr	-10.852
prosper	-10.8524
journey	-10.8531
kri	-10.8533
spoil	-10.8533
willing	-10.854
chal	-10.8543
recep	-10.8543
pride	-10.855
poy	-10.855
habebat	-10.8575
ayths	-10.8576
francia	-10.8585
islands	-10.8588
omenon	-10.8591
nondum	-10.8591
british	-10.8594
ual	-10.8594
iustus	-10.8594
republic	-10.8599
troops	-10.8599
olympia	-10.86
bid	-10.8601
offend	-10.8605
canta	-10.861
datur	-10.8613
contact	-10.8619
confer	-10.862
grave	-10.8621
heat	-10.8623
recent	-10.8629
belief	-10.8633
pod	-10.8635
tiva	-10.8638
positi	-10.8642
russian	-10.8643
reges	-10.8643
ruin	-10.8645
lapid	-10.8646
beloved	-10.865
fold	-10.8655
virtue	-10.8661
punishment	-10.8672
futura	-10.8674
freedom	-10.8675
pleased	-10.8686
volunt	-10.8689
berg	-10.8697
egredi	-10.8699
isaiah	-10.87
lower	-10.871
cena	-10.8712
alexander	-10.8713
dicent	-10.8714
dare	-10.8717
triumph	-10.8719
respondens	-10.8719
libenter	-10.8729
option	-10.8732
aeque	-10.8738
aeternum	-10.874
auctor	-10.874
recta	-10.8743
crown	-10.8745
praec	-10.8748
lectus	-10.8753
indica	-10.8753
litteras	-10.8754
active	-10.876
hero	-10.876
abant	-10.8765
information	-10.8768
gust	-10.8773
boys	-10.8773
peccatum	-10.8776
hodierna	-10.8784
agricola	-10.8784
covered	-10.8786
dii	-10.879
mistake	-10.8792
writer	-10.8793
cognovi	-10.8794
harum	-10.8796
ikh	-10.8797
nig	-10.8802
sil	-10.8803
omenvn	-10.8803
fifty	-10.8814
memory	-10.8818
tenetur	-10.8825
particip	-10.883
regula	-10.8831
virtute	-10.8831
worse	-10.8836
numeri	-10.8837
libros	-10.8839
tend	-10.8841
cook	-10.8843
princes	-10.8848
fra	-10.8851
current	-10.8854
bello	-10.8856
contend	-10.8859
matt	-10.886
education	-10.8865
capital	-10.8865
reduc	-10.8866
villa	-10.8866
praeses	-10.8867
architecto	-10.8867
onti	-10.8867
courage	-10.8867
scripti	-10.887
border	-10.8875
poll	-10.8877
rey	-10.8879
massa	-10.8885
dunt	-10.8886
judges	-10.889
fro	-10.8897
prof	-10.8902
root	-10.8902
impossible	-10.891
principium	-10.891
taught	-10.8914
exemplum	-10.8917
syr	-10.8918
civitates	-10.8919
unam	-10.8923
usus	-10.8924
tamquam	-10.8928
proprie	-10.8929
ides	-10.8932
leon	-10.8936
ventus	-10.8936
healthy	-10.8937
celebrat	-10.8941
gad	-10.8953
veritas	-10.8953
aw	-10.8962
oysa	-10.8962
athenians	-10.8963
tho	-10.8964
shit	-10.8964
cunctis	-10.8968
ymas	-10.8968
wag	-10.8971
engine	-10.8973
occid	-10.8977
iniquity	-10.8985
ancilla	-10.8997
begin	-10.9
laws	-10.9
armed	-10.9004
finished	-10.9013
gala	-10.9018
depart	-10.902
cognoscit	-10.9025
row	-10.9027
luk	-10.9032
joined	-10.904
stol	-10.9045
shout	-10.9045
contract	-10.9045
conclud	-10.9055
perform	-10.9055
trying	-10.9058
regina	-10.906
tradition	-10.9061
legal	-10.9063
seemed	-10.9067
salu	-10.9068
pala	-10.9072
ikon	-10.9075
declara	-10.908
caught	-10.9083
namque	-10.9084
flame	-10.9084
cies	-10.9085
sancto	-10.9087
pharao	-10.9094
silence	-10.9096
koy	-10.9096
videri	-10.9099
shin	-10.91
spot	-10.9101
littera	-10.9106
eaque	-10.911
terms	-10.911
significa	-10.9115
document	-10.9117
angry	-10.9117
garden	-10.9125
portion	-10.9126
annorum	-10.9131
powerful	-10.9133
fecerit	-10.9139
noah	-10.9141
changed	-10.9145
urbs	-10.9152
iube	-10.9152
bond	-10.9155
bimus	-10.9155
fugiat	-10.9158
moving	-10.916
stones	-10.9161
struck	-10.9161
opposite	-10.9161
street	-10.9166
templo	-10.9167
sara	-10.9171
sought	-10.9175
amet	-10.9176
imperium	-10.9177
baal	-10.918
ncia	-10.9181
pip	-10.9182
decree	-10.9184
fortune	-10.9184
rup	-10.9185
servo	-10.9185
fallen	-10.9198
gna	-10.9199
nian	-10.9209
semen	-10.921
uff	-10.9217
duos	-10.9217
necessitate	-10.9219
vox	-10.922
represent	-10.9221
separate	-10.9222
causes	-10.9227
entis	-10.9229
prohib	-10.9229
pres	-10.9232
uo	-10.9233
gaude	-10.9235
simo	-10.9239
matur	-10.9241
unius	-10.9245
ists	-10.9245
shape	-10.9249
introduc	-10.925
ktein	-10.925
total	-10.9254
ioseph	-10.9257
caused	-10.9257
mik	-10.9262
horas	-10.9265
beth	-10.927
political	-10.9272
storm	-10.9273
aedifica	-10.9273
website	-10.9274
libet	-10.9277
gospel	-10.9283
mque	-10.9285
guide	-10.9291
amicitia	-10.9296
fidei	-10.9296
copia	-10.9297
edition	-10.9299
reply	-10.9303
menoy	-10.9306
idol	-10.9309
refuse	-10.9309
ended	-10.9311
mentum	-10.9319
cog	-10.9321
empty	-10.9323
statim	-10.9323
bibli	-10.9324
likely	-10.9326
umque	-10.9328
england	-10.9331
avert	-10.9331
february	-10.934
goddess	-10.9342
elected	-10.9345
tandem	-10.9347
quum	-10.9347
istis	-10.9348
throw	-10.935
quandoque	-10.9351
continued	-10.9357
humble	-10.9364
oppress	-10.9365
eisuai	-10.9366
adora	-10.9372
idas	-10.9374
prv	-10.9375
shut	-10.9377
ymvn	-10.9385
muta	-10.9386
hmin	-10.9392
decided	-10.9393
anus	-10.9397
request	-10.9407
constitution	-10.9413
market	-10.9415
program	-10.9419
vum	-10.9419
proprio	-10.9431
roi	-10.9433
huc	-10.944
attempt	-10.9441
animam	-10.9442
hmas	-10.9444
original	-10.9448
ending	-10.9449
village	-10.9451
occur	-10.9454
htai	-10.946
dives	-10.946
endure	-10.9461
cius	-10.9462
ducat	-10.9474
diligent	-10.9474
quisque	-10.9474
lecti	-10.9476
sir	-10.9477
wherefore	-10.9479
placuit	-10.948
prayers	-10.9483
monument	-10.9484
hko	-10.9489
adversus	-10.9491
vii	-10.9492
student	-10.9496
weak	-10.9503
founded	-10.9504
manum	-10.9507
oytos	-10.9508
cool	-10.9509
revealed	-10.9512
useful	-10.9513
rion	-10.9515
guy	-10.9518
aim	-10.9518
olim	-10.9521
historic	-10.9525
macedonia	-10.9526
medical	-10.9528
legit	-10.9529
math	-10.954
kvn	-10.9542
winter	-10.9543
oculis	-10.9548
health	-10.955
mix	-10.9553
lau	-10.9554
stranger	-10.9558
maximum	-10.9562
entayua	-10.9566
started	-10.9566
amfi	-10.9571
agri	-10.9571
apt	-10.9574
autumn	-10.9575
dur	-10.9576
chia	-10.9582
sacerdos	-10.9585
relic	-10.9587
using	-10.96
poena	-10.9601
concept	-10.9613
subito	-10.9613
governor	-10.9614
speed	-10.9615
argent	-10.9617
remained	-10.962
inimici	-10.9624
cloud	-10.9632
compara	-10.9636
vestri	-10.9638
pieces	-10.9645
sancta	-10.9646
liberal	-10.9649
cunque	-10.9654
ludere	-10.966
amur	-10.9661
instant	-10.9665
gil	-10.9673
dir	-10.9677
lands	-10.968
ping	-10.9682
probably	-10.9683
method	-10.9686
spake	-10.9686
slain	-10.9694
pia	-10.9695
farm	-10.9698
gesta	-10.9701
uber	-10.9703
sides	-10.9704
commune	-10.9709
phar	-10.9716
tati	-10.9722
actus	-10.9729
ingredi	-10.9729
victor	-10.973
inner	-10.9741
certo	-10.975
prize	-10.9751
forty	-10.9751
unda	-10.9753
pil	-10.9755
calor	-10.9756
semina	-10.976
married	-10.977
meter	-10.9773
plena	-10.9782
treasure	-10.9782
praesta	-10.979
institu	-10.9791
stars	-10.9794
democratic	-10.9806
itudine	-10.9806
museum	-10.9811
tenta	-10.9814
haven	-10.9819
ably	-10.9826
rebus	-10.9827
mom	-10.9827
neck	-10.9827
ney	-10.9828
liga	-10.9829
july	-10.9831
singular	-10.9833
elli	-10.9835
summer	-10.9841
verbis	-10.9842
drinking	-10.9843
exception	-10.9848
flor	-10.9853
stock	-10.9855
rabbi	-10.9861
sorrow	-10.9865
evidence	-10.9867
archi	-10.9869
voluptate	-10.9871
cau	-10.9871
stan	-10.9874
guilty	-10.9876
quick	-10.9883
sufficit	-10.9883
senior	-10.9889
vestro	-10.9891
thoma	-10.9891
agro	-10.9892
accusamus	-10.9892
drew	-10.9894
consume	-10.9896
verat	-10.9898
antiqui	-10.9899
petr	-10.99
feature	-10.9903
cicero	-10.9903
coniug	-10.9905
helm	-10.9908
buntur	-10.9909
graeci	-10.9913
habuit	-10.9917
forgive	-10.992
huic	-10.9921
nevertheless	-10.9921
tolera	-10.9927
famous	-10.9928
gets	-10.993
calling	-10.9932
lector	-10.9932
gel	-10.9935
kaisar	-10.9936
drunk	-10.9938
gramma	-10.9938
skin	-10.9939
adulter	-10.994
philip	-10.9942
sanctus	-10.9951
exempla	-10.9955
hmvn	-10.9957
potent	-10.9958
project	-10.996
older	-10.9962
effective	-10.9963
virtutem	-10.9964
fiducia	-10.9965
legere	-10.9972
unknown	-10.9973
visus	-10.9985
antony	-10.9987
faciet	-10.9988
ludo	-10.9991
section	-10.9997
unica	-10.9997
employ	-11.0003
factor	-11.0009
jack	-11.001
barba	-11.0011
opportunity	-11.0012
rough	-11.0016
conscientia	-11.0017
sabbath	-11.0017
valley	-11.0019
caro	-11.0022
serious	-11.0023
students	-11.0027
rug	-11.0027
available	-11.0029
europaea	-11.0029
ghs	-11.0033
creature	-11.0035
debes	-11.0035
degree	-11.0037
allies	-11.0042
stuff	-11.0055
inicio	-11.0056
wing	-11.0068
shadow	-11.007
ages	-11.007
completely	-11.0071
viro	-11.0072
confusion	-11.0072
postula	-11.0076
bless	-11.0079
mc	-11.008
rib	-11.0084
oblivion	-11.0088
ruler	-11.0091
ghn	-11.0092
persons	-11.0097
prvton	-11.01
coepit	-11.0103
step	-11.0104
ulos	-11.0106
playing	-11.0107
trop	-11.011
print	-11.0115
cycl	-11.0115
ahead	-11.0117
potius	-11.0117
germany	-11.0117
vim	-11.0118
link	-11.0124
accident	-11.0126
montes	-11.0137
opvs	-11.0137
multas	-11.0138
oculi	-11.0139
ux	-11.014
optima	-11.0142
omo	-11.0143
google	-11.0153
philipp	-11.0155
teaching	-11.0159
scipio	-11.0164
fui	-11.017
shield	-11.0176
quest	-11.0177
petra	-11.0177
families	-11.018
casa	-11.0186
quarto	-11.0187
ikos	-11.0189
ioanni	-11.0191
bestia	-11.0193
vendi	-11.0195
femin	-11.0205
committed	-11.0205
excuse	-11.021
distribu	-11.0213
meeting	-11.0217
follows	-11.022
aestima	-11.0226
redi	-11.023
habitant	-11.0233
vta	-11.0234
melius	-11.0239
offerings	-11.0242
faction	-11.0245
yield	-11.0251
dentes	-11.0252
flock	-11.0254
dixerit	-11.0255
anglica	-11.0256
element	-11.0259
experiment	-11.026
provided	-11.0262
congress	-11.0263
beauty	-11.0265
member	-11.0268
expert	-11.0279
belong	-11.028
aspernatur	-11.028
oph	-11.0282
feria	-11.0289
timid	-11.029
lati	-11.0291
lumen	-11.0293
foundation	-11.0293
feed	-11.0298
ponere	-11.0301
venti	-11.0305
civitatem	-11.0306
april	-11.0308
lock	-11.0309
loquar	-11.031
commission	-11.0312
wonderful	-11.0313
contrary	-11.0314
justo	-11.0316
brand	-11.0323
bath	-11.0324
review	-11.0326
becomes	-11.0327
smoke	-11.0327
dubitare	-11.0329
consola	-11.0329
flag	-11.0335
parva	-11.0342
plaga	-11.0344
hispania	-11.0345
corruption	-11.0346
district	-11.0348
petro	-11.0353
pam	-11.0361
utile	-11.0362
reached	-11.0366
burning	-11.0366
pantvn	-11.0366
socialis	-11.0372
simply	-11.0372
maximi	-11.0375
serpent	-11.0375
cultura	-11.0375
nox	-11.0377
angelus	-11.0378
accusantium	-11.0383
declared	-11.0385
generans	-11.0389
gifts	-11.0391
peir	-11.0395
minimum	-11.0397
afterwards	-11.0409
pax	-11.041
hidden	-11.0411
prepared	-11.0415
rosa	-11.0419
flamma	-11.0426
excel	-11.0429
contraria	-11.043
agora	-11.0431
vides	-11.0433
genti	-11.0433
lady	-11.0433
hearts	-11.0434
revelation	-11.0434
ola	-11.0434
luck	-11.0436
deos	-11.0449
cio	-11.0449
arbitr	-11.045
interior	-11.0452
crimen	-11.0456
sold	-11.0459
risk	-11.0462
nulli	-11.0463
veri	-11.0463
dicebat	-11.0463
plate	-11.0469
cotidie	-11.0474
catch	-11.0475
contest	-11.0477
affirm	-11.0483
ministra	-11.0483
raise	-11.0485
nimis	-11.0488
philosophia	-11.0489
indicat	-11.0493
simili	-11.0495
vobiscum	-11.0498
buried	-11.0504
load	-11.0511
carthag	-11.0513
sacri	-11.0518
pasc	-11.052
regular	-11.0521
civitate	-11.0526
fol	-11.0528
zy	-11.053
dust	-11.0532
stands	-11.0532
solve	-11.0535
peccata	-11.0538
deleniti	-11.054
temporis	-11.0542
normal	-11.0546
salute	-11.0547
recognize	-11.0547
novo	-11.0548
repellendus	-11.0553
abunt	-11.0564
quales	-11.0564
nav	-11.0566
exvn	-11.0567
pariatur	-11.0568
puto	-11.0568
neighbor	-11.0574
dyo	-11.0576
idvn	-11.0578
rp	-11.0582
circuitu	-11.0583
foolish	-11.0585
baptiz	-11.0588
computer	-11.0591
tomb	-11.0592
tulerunt	-11.0593
recipit	-11.0594
ducimus	-11.0596
bold	-11.0598
maid	-11.0599
meat	-11.0602
lean	-11.0602
consilia	-11.0606
voluntatem	-11.0609
lanc	-11.0609
decor	-11.061
yuys	-11.0612
fuck	-11.0613
suffering	-11.0615
sleeping	-11.0616
advantage	-11.0617
merito	-11.0619
efficient	-11.0619
nza	-11.0624
tanti	-11.0626
salutem	-11.0631
austria	-11.0633
recipi	-11.0635
ugh	-11.0639
guess	-11.0641
protect	-11.0652
veniunt	-11.0655
culture	-11.0658
sap	-11.0661
status	-11.0663
veniat	-11.0663
sicilia	-11.0675
secure	-11.0678
ducit	-11.0679
decision	-11.0681
confidence	-11.0686
languages	-11.0686
forgiveness	-11.0688
creatures	-11.0688
picture	-11.0698
beast	-11.0701
cepit	-11.0707
audient	-11.0712
radio	-11.0713
pedi	-11.0715
navi	-11.0717
mittit	-11.0718
matrem	-11.0723
worked	-11.0725
duae	-11.0725
praeterea	-11.0725
epistula	-11.0726
likewise	-11.0727
symmax	-11.0728
pantes	-11.0729
conversation	-11.073
apostolic	-11.0731
tard	-11.0733
facto	-11.0734
corona	-11.0739
destruction	-11.074
officers	-11.0741
necessarium	-11.0743
heavy	-11.0752
mittere	-11.0752
refused	-11.0753
invicem	-11.0755
gau	-11.0756
australia	-11.0763
illumina	-11.0763
ends	-11.0768
priv	-11.0777
address	-11.0778
bin	-11.078
below	-11.0792
admit	-11.0793
adduc	-11.0799
safety	-11.0802
abu	-11.0807
royal	-11.0807
versus	-11.0807
lici	-11.0808
relative	-11.0809
thick	-11.0813
folk	-11.0814
observe	-11.0815
chapter	-11.0819
push	-11.0821
vra	-11.0825
entire	-11.0826
dogs	-11.0828
abel	-11.0834
tabernacle	-11.0836
temptation	-11.0837
film	-11.0839
uhsan	-11.0839
remove	-11.0844
tyr	-11.0845
idos	-11.0854
feyg	-11.0857
jordan	-11.0858
blow	-11.0859
ization	-11.0861
sfisin	-11.0864
aggel	-11.0874
triginta	-11.0875
comfortable	-11.0877
esau	-11.0879
ville	-11.088
possibile	-11.0885
existence	-11.0885
putat	-11.0886
plato	-11.0887
sanctifica	-11.0887
burned	-11.0889
collo	-11.0891
poterat	-11.0898
menta	-11.0899
rationes	-11.0901
taj	-11.0915
hsai	-11.0918
arii	-11.0918
cogitare	-11.0922
felici	-11.0922
specific	-11.0924
aig	-11.0927
intention	-11.0928
appellat	-11.0931
dicet	-11.0933
upper	-11.0933
aegypto	-11.0934
officio	-11.0935
frank	-11.0935
illus	-11.0936
imperfect	-11.0939
suggest	-11.0944
consent	-11.0947
consequ	-11.0951
vste	-11.0953
chem	-11.0954
officer	-11.0955
commandments	-11.0956
terre	-11.0957
mundus	-11.0958
koys	-11.0958
divide	-11.0959
datum	-11.096
parc	-11.0964
hall	-11.0964
venerit	-11.0967
heli	-11.0969
reliquis	-11.0972
loves	-11.0974
eastern	-11.0975
aperi	-11.0975
function	-11.098
prayed	-11.098
agalma	-11.098
bb	-11.0984
furor	-11.0984
shore	-11.0986
absent	-11.0986
og	-11.099
pemc	-11.0994
cow	-11.1003
strike	-11.1004
cavalry	-11.101
spear	-11.1013
reversus	-11.1016
egeneto	-11.1022
meu	-11.1026
mau	-11.1031
fideli	-11.1033
epistola	-11.1039
cf	-11.104
quality	-11.1041
dixisti	-11.1043
rous	-11.1044
continuo	-11.1046
quicquam	-11.105
calc	-11.1051
believing	-11.1051
didymus	-11.1053
message	-11.1057
sexual	-11.1058
substance	-11.1061
usual	-11.1062
officium	-11.1066
dicatur	-11.1066
zvn	-11.1067
matthew	-11.1069
dreams	-11.1071
boyley	-11.1072
nomini	-11.1074
gradu	-11.108
utilit	-11.1084
dangerous	-11.1086
romano	-11.1086
annu	-11.1086
funda	-11.1091
golden	-11.1092
boat	-11.1093
reperi	-11.1093
pep	-11.1098
jos	-11.1099
alv	-11.11
christum	-11.11
showed	-11.1102
valent	-11.1103
pla	-11.1104
stream	-11.1109
territory	-11.1111
rota	-11.1112
coast	-11.1112
transfer	-11.1117
partner	-11.1117
gentle	-11.1118
respici	-11.1118
minutes	-11.1126
labour	-11.1129
cognosce	-11.1131
verbo	-11.1132
convenient	-11.1132
vivi	-11.1135
facilius	-11.1139
suspicion	-11.1139
clearly	-11.1142
boylh	-11.1142
potential	-11.1145
lips	-11.1147
svma	-11.1149
posito	-11.115
perish	-11.1151
omnino	-11.1152
direction	-11.1155
mono	-11.1158
canon	-11.1159
praeconium	-11.1164
poem	-11.1168
magnus	-11.1168
peti	-11.1168
potestatem	-11.1169
hit	-11.1171
sparta	-11.1172
quite	-11.1177
demand	-11.1181
heads	-11.1183
cing	-11.1186
pari	-11.1189
aug	-11.1189
laus	-11.119
york	-11.1191
remains	-11.1192
accidit	-11.1192
circumcision	-11.1192
zv	-11.1196
craft	-11.1206
mars	-11.1214
iores	-11.1214
brave	-11.1226
wal	-11.1236
polloi	-11.1244
significant	-11.1244
fresh	-11.1253
refuge	-11.1256
invenit	-11.1259
orationem	-11.1262
strict	-11.1264
sustine	-11.1267
hib	-11.1268
intellect	-11.1271
otan	-11.128
propositum	-11.1282
native	-11.1283
logical	-11.1286
alas	-11.1287
levites	-11.129
digna	-11.1291
alibi	-11.1291
research	-11.1292
fashion	-11.13
fighting	-11.1301
suspici	-11.1305
temporary	-11.1309
bum	-11.1318
infinite	-11.1319
fen	-11.132
posts	-11.1324
anglia	-11.1325
proposition	-11.1329
hello	-11.1333
kol	-11.1333
tender	-11.1335
redde	-11.1335
excita	-11.1337
sacra	-11.1338
lly	-11.1344
homini	-11.1344
events	-11.1344
abomination	-11.1346
dedicated	-11.1356
serio	-11.1358
judic	-11.136
population	-11.1361
exerc	-11.1365
pyl	-11.1367
ulo	-11.1368
proceed	-11.137
amos	-11.1373
exercituum	-11.1374
spin	-11.1375
decide	-11.1379
arab	-11.1383
crescit	-11.1386
praeside	-11.139
mensa	-11.1391
cern	-11.14
clothing	-11.1402
planet	-11.1403
leva	-11.1403
sima	-11.1403
learning	-11.1407
audivit	-11.1412
bigger	-11.1419
blessing	-11.1421
departed	-11.1427
exaudi	-11.1427
poli	-11.1429
nationes	-11.1433
gentibus	-11.1435
guilt	-11.1441
broke	-11.1444
guberna	-11.1445
thoughts	-11.1445
society	-11.1449
atibus	-11.1449
conflict	-11.145
beside	-11.1457
xor	-11.1461
principles	-11.1464
definitely	-11.1466
moderat	-11.1477
tired	-11.1477
columna	-11.1479
bright	-11.1487
earlier	-11.1494
appeal	-11.1494
respondere	-11.1496
deny	-11.15
iuris	-11.1501
commandment	-11.1502
urban	-11.1505
sanguinem	-11.1505
propterea	-11.1507
terminos	-11.1508
compassion	-11.151
athens	-11.1512
shown	-11.1513
virtutes	-11.1514
futuro	-11.1514
nathan	-11.1514
temper	-11.1515
burden	-11.1518
mollitia	-11.152
deeds	-11.1525
based	-11.1529
holiday	-11.153
boni	-11.1531
apart	-11.1532
claudi	-11.1544
bac	-11.1546
venus	-11.1547
wound	-11.1548
templum	-11.1549
communion	-11.155
deserto	-11.1552
palin	-11.1554
tub	-11.1556
aught	-11.1557
attention	-11.1558
vespera	-11.1562
futurum	-11.1562
primis	-11.1564
breast	-11.1566
petition	-11.1567
graf	-11.1573
disputation	-11.1573
statement	-11.1577
eritis	-11.1578
pud	-11.1581
award	-11.1583
fides	-11.1584
oyntes	-11.1585
ambo	-11.1585
closed	-11.1586
responderunt	-11.1586
uym	-11.1586
oct	-11.1586
critic	-11.1587
defini	-11.159
xx	-11.1592
princeps	-11.1593
across	-11.1594
sermonem	-11.1594
clav	-11.1597
ordinat	-11.1597
dicas	-11.1597
bill	-11.1597
nub	-11.16
cruci	-11.1601
phi	-11.1603
frame	-11.1604
blessings	-11.1607
acci	-11.1607
calm	-11.1608
sul	-11.1609
actual	-11.1611
stick	-11.1615
matters	-11.1623
oysan	-11.1624
daimon	-11.1627
ignorant	-11.1629
rot	-11.1631
immo	-11.1632
consuetudin	-11.1634
wives	-11.1635
rog	-11.1635
alium	-11.1636
specula	-11.1638
shake	-11.1638
absurd	-11.1638
convenit	-11.164
facili	-11.1642
ieron	-11.1642
imita	-11.1653
hsen	-11.1654
generations	-11.1655
verres	-11.1659
stai	-11.1665
lucius	-11.1667
kro	-11.1671
relationship	-11.1672
soy	-11.1677
youth	-11.1678
actions	-11.1678
cher	-11.168
scriba	-11.1682
abiit	-11.1683
martin	-11.1684
phan	-11.1685
instruct	-11.1686
punished	-11.169
gram	-11.1693
domestic	-11.1694
recommend	-11.1695
asperiores	-11.1696
finish	-11.1697
ducere	-11.1707
spend	-11.1707
sect	-11.1708
hunt	-11.1708
christians	-11.1709
appointment	-11.1714
moys	-11.1717
habetur	-11.172
library	-11.1725
xh	-11.1729
adversum	-11.173
kid	-11.1732
quaeris	-11.1732
perdit	-11.1734
voluit	-11.1734
links	-11.1741
taste	-11.1743
incolae	-11.1744
september	-11.1745
pvs	-11.1748
ultimo	-11.175
hebrew	-11.1756
affer	-11.1757
manibus	-11.1759
interrogavit	-11.176
tribes	-11.176
veris	-11.1761
zion	-11.1763
filed	-11.177
tempest	-11.178
divini	-11.1783
comprehend	-11.1785
intellectus	-11.1788
leading	-11.179
retro	-11.1796
mentioned	-11.1797
agnos	-11.1801
antiqua	-11.1806
principle	-11.1806
principi	-11.1807
sicily	-11.1815
inquire	-11.1816
isxy	-11.1816
symbol	-11.1817
castra	-11.1819
falsum	-11.1821
legat	-11.1826
redit	-11.1827
scandal	-11.1828
listening	-11.1832
ellhn	-11.1832
driven	-11.1832
lian	-11.1833
owner	-11.1833
hey	-11.1835
poih	-11.1835
hominibus	-11.1842
unclean	-11.1844
bridge	-11.185
kil	-11.1853
casu	-11.1853
tower	-11.1861
actio	-11.1863
december	-11.1863
broad	-11.187
expedi	-11.1873
nium	-11.1878
disturb	-11.1879
noys	-11.1879
coloni	-11.1881
ponam	-11.1884
falsa	-11.1884
carni	-11.1887
novem	-11.1891
rail	-11.1891
anglice	-11.1892
impera	-11.1892
formam	-11.1892
unable	-11.1895
gro	-11.1898
chose	-11.1908
cattle	-11.1909
creati	-11.191
mortis	-11.1917
reliqua	-11.1921
exter	-11.1924
capi	-11.1928
pollvn	-11.1933
celer	-11.1934
rho	-11.1946
actum	-11.1948
koi	-11.1948
magnum	-11.1952
herself	-11.1958
cibo	-11.1962
crying	-11.1963
universe	-11.1966
deficit	-11.1968
mandata	-11.1969
commander	-11.1971
viderunt	-11.1972
matos	-11.1973
pleon	-11.1975
realize	-11.1981
nius	-11.1983
dal	-11.1983
absolute	-11.1986
puerum	-11.1986
criminal	-11.1987
standard	-11.1991
vino	-11.1992
remind	-11.1994
companion	-11.1994
discipline	-11.1997
republican	-11.2
quotidie	-11.2001
signed	-11.2004
parentes	-11.2005
stratey	-11.2006
sept	-11.2011
cun	-11.2012
violence	-11.2014
deceive	-11.2016
staff	-11.2018
leaving	-11.2019
scribi	-11.202
pretio	-11.2024
ulla	-11.2026
rak	-11.2027
desired	-11.2032
slave	-11.2032
accipere	-11.2039
camera	-11.2039
trap	-11.2044
subsist	-11.2045
amicus	-11.2046
actu	-11.2048
smith	-11.2052
clara	-11.206
prudentia	-11.2061
fought	-11.2064
suffered	-11.2066
regni	-11.2066
bought	-11.2073
stern	-11.2076
accipit	-11.2076
advance	-11.2081
negat	-11.2083
occurrit	-11.2084
huh	-11.2084
proximo	-11.2089
cella	-11.2089
ysteron	-11.2093
household	-11.2095
security	-11.2098
alterum	-11.21
medicine	-11.2101
mora	-11.2102
frustra	-11.2104
como	-11.2106
simplici	-11.2106
patet	-11.2107
tines	-11.2113
praepara	-11.2113
sacerdoti	-11.2117
lectiones	-11.2118
jas	-11.2119
andra	-11.2119
initio	-11.212
hra	-11.2123
xal	-11.2125
necessitas	-11.2131
prompt	-11.2132
meridi	-11.2136
sorores	-11.2137
navig	-11.2149
ponitur	-11.2152
visible	-11.2153
uos	-11.2156
aside	-11.216
kaloy	-11.2162
mentoi	-11.2164
surrexit	-11.2164
saltem	-11.2166
felix	-11.2168
tace	-11.2173
santa	-11.2174
chat	-11.2175
growing	-11.2176
arabic	-11.2182
cessa	-11.2182
compete	-11.2187
euro	-11.2204
stopped	-11.221
hii	-11.2221
fleet	-11.2223
debat	-11.2226
positio	-11.223
vex	-11.223
slaves	-11.2234
exact	-11.2236
frigid	-11.2243
mensis	-11.2246
wave	-11.225
spain	-11.2252
velim	-11.2256
agreement	-11.2257
constituit	-11.226
pour	-11.2263
successor	-11.2263
panem	-11.2266
bling	-11.2266
pitch	-11.2266
primary	-11.2273
related	-11.2275
suffic	-11.2283
bones	-11.2283
graph	-11.2288
doctrine	-11.2291
aged	-11.2298
deposit	-11.2298
captured	-11.2299
vain	-11.2299
lop	-11.2301
rev	-11.2302
bitter	-11.2303
meant	-11.2306
shew	-11.2306
lifted	-11.2308
realis	-11.2308
deduc	-11.2311
ullam	-11.2318
box	-11.2322
rii	-11.2322
seventh	-11.2327
drop	-11.2329
vulg	-11.2332
central	-11.2334
planta	-11.2335
november	-11.2339
accordingly	-11.2342
conditions	-11.2344
examples	-11.2347
motiv	-11.235
profici	-11.235
necessario	-11.2351
physical	-11.2357
uria	-11.2357
granted	-11.2365
agreed	-11.237
initia	-11.2376
monster	-11.2376
vestris	-11.2377
jon	-11.2378
exemplo	-11.2382
ministro	-11.2385
candida	-11.2387
armies	-11.2387
barr	-11.2391
greatly	-11.2393
quaeque	-11.2393
octavius	-11.2395
loquor	-11.2395
apostolus	-11.2399
naves	-11.2401
friendly	-11.2402
points	-11.2402
bay	-11.2405
angle	-11.2406
sounds	-11.241
tradit	-11.2411
amicis	-11.2416
including	-11.2419
intellectual	-11.2421
wherever	-11.243
mensura	-11.2432
linea	-11.2432
gentiles	-11.2432
tears	-11.2436
elders	-11.2438
fixed	-11.2438
maintain	-11.244
claus	-11.2447
domos	-11.2447
leyk	-11.2448
glorious	-11.245
addition	-11.2451
armenia	-11.2452
skill	-11.2452
ously	-11.2456
jump	-11.2464
miracle	-11.2472
consecrat	-11.2472
walked	-11.2476
lunch	-11.2477
vmen	-11.2478
bibliotheca	-11.2478
maledic	-11.2481
anhr	-11.2487
epta	-11.2494
charged	-11.2501
oyshs	-11.2508
iois	-11.2512
longa	-11.2512
exercitus	-11.2513
fvn	-11.2515
bud	-11.2517
montem	-11.2518
transit	-11.252
philosophy	-11.2521
asking	-11.2521
currently	-11.2522
orthodox	-11.2526
haz	-11.2528
honey	-11.2528
festival	-11.2531
carnem	-11.254
reliqui	-11.2543
eligendi	-11.2543
praecepit	-11.2545
dys	-11.2549
seriously	-11.2551
messenger	-11.2552
train	-11.2552
yesterday	-11.2554
fines	-11.2564
prem	-11.2568
stant	-11.2568
violent	-11.2572
lebanon	-11.2575
disease	-11.2579
blue	-11.258
sceler	-11.2582
vester	-11.2583
accepted	-11.2583
types	-11.2585
kop	-11.2585
quinta	-11.2586
dormit	-11.2587
despise	-11.2587
prudent	-11.2589
worry	-11.259
justitia	-11.259
servos	-11.2593
james	-11.2593
marti	-11.2594
eluont	-11.2595
twice	-11.2603
experi	-11.2613
fasin	-11.2615
ianuarii	-11.2616
consequence	-11.2617
suppose	-11.262
zar	-11.2621
alb	-11.2621
llo	-11.2628
greece	-11.2629
novel	-11.2633
ponder	-11.2633
everlasting	-11.2634
britannia	-11.2638
assyria	-11.264
quinquaginta	-11.2642
iniquitatem	-11.2643
mah	-11.2643
similes	-11.2648
vacation	-11.2654
swift	-11.2655
nocturno	-11.2655
potion	-11.2657
forms	-11.2659
actor	-11.266
troy	-11.266
captain	-11.2661
consensu	-11.2664
perceive	-11.2667
vestibulum	-11.267
praesidi	-11.267
curio	-11.267
mystery	-11.2672
driving	-11.2674
urbis	-11.2675
impossibile	-11.2676
commemora	-11.2676
mundum	-11.2677
credunt	-11.268
celebra	-11.2687
vow	-11.2687
praecipi	-11.2688
academia	-11.2688
philistines	-11.2689
patientia	-11.269
rari	-11.2691
easier	-11.2694
absolutely	-11.2697
enua	-11.2699
roth	-11.27
calls	-11.2704
leaves	-11.271
fiat	-11.2713
porey	-11.2715
column	-11.2716
receives	-11.2716
quinto	-11.2721
obedience	-11.2722
quadraginta	-11.2722
nostris	-11.2724
metu	-11.2725
palace	-11.2725
flowers	-11.2729
difficili	-11.2736
maiorem	-11.2741
missed	-11.2741
ayuis	-11.2745
possibili	-11.2749
polei	-11.275
augusti	-11.275
vehicle	-11.2755
tempo	-11.2755
sabbato	-11.276
uros	-11.2762
tennis	-11.2762
distant	-11.2762
hrv	-11.2766
flying	-11.2767
confused	-11.2768
horn	-11.2769
reference	-11.277
scot	-11.2772
nullus	-11.2777
perfecta	-11.2782
matrimonio	-11.2786
grown	-11.2799
advise	-11.2802
administration	-11.2804
worn	-11.2805
holding	-11.2805
cedit	-11.2815
released	-11.282
steps	-11.2824
alloi	-11.2826
ostendit	-11.2826
situation	-11.2828
india	-11.2831
singula	-11.2836
string	-11.2837
preci	-11.2839
location	-11.2841
hated	-11.2842
economic	-11.2842
describe	-11.2843
bag	-11.2845
lah	-11.2845
verso	-11.2849
locuti	-11.2852
absalom	-11.2853
band	-11.2855
xy	-11.2856
iuvenis	-11.2857
lust	-11.2858
closer	-11.2858
animalia	-11.2861
duty	-11.2863
determinat	-11.2864
discipulus	-11.2869
polevs	-11.2871
tribunal	-11.2872
weather	-11.288
apple	-11.2882
culis	-11.2883
pertinet	-11.2885
aedific	-11.2886
quaero	-11.2889
athena	-11.2893
civitatis	-11.29
georgia	-11.2902
images	-11.2911
iecit	-11.2913
lap	-11.2913
unsubscribe	-11.2921
conquer	-11.2922
jy	-11.2922
archiv	-11.2928
appearance	-11.2935
ruit	-11.2935
rvmaivn	-11.2936
okay	-11.2942
sanctum	-11.2944
training	-11.2946
immediat	-11.2948
eiusdem	-11.2949
deka	-11.2949
mortuis	-11.2952
setting	-11.2957
omenoys	-11.2963
expected	-11.2964
wil	-11.2966
bird	-11.297
piece	-11.2974
dance	-11.298
occult	-11.2984
comitatu	-11.2989
xrhs	-11.299
kyros	-11.2991
possint	-11.2992
forced	-11.2994
arrive	-11.2994
william	-11.2995
convinc	-11.2995
pup	-11.3
testamentum	-11.3002
preserve	-11.3005
aquam	-11.3005
apostle	-11.3006
dicebant	-11.301
chan	-11.3012
western	-11.3014
removed	-11.3014
occurr	-11.3015
orator	-11.3015
apply	-11.3015
institute	-11.3017
weapons	-11.3018
toytv	-11.3018
manduca	-11.3019
repair	-11.3021
toyton	-11.3025
praj	-11.3028
arbitra	-11.3029
culi	-11.303
loose	-11.3031
uenta	-11.3033
audisti	-11.3034
calendar	-11.3036
window	-11.3038
awake	-11.3038
diceret	-11.3039
cogno	-11.3042
keeping	-11.3044
cata	-11.3045
interpretation	-11.3046
kir	-11.3046
gio	-11.3049
translation	-11.3051
prepare	-11.3051
civitas	-11.3054
praying	-11.3055
auxilia	-11.3059
philosopher	-11.306
center	-11.3062
oytoi	-11.3065
quarter	-11.3065
attribut	-11.3066
abundant	-11.3071
unity	-11.3072
spiritum	-11.3072
impetu	-11.3073
amphi	-11.3073
stated	-11.308
tribulation	-11.308
reform	-11.3081
elias	-11.3082
idque	-11.3091
pack	-11.3092
speaks	-11.3098
arian	-11.3099
countries	-11.3104
scientific	-11.3104
servit	-11.3108
influence	-11.3108
abstract	-11.3111
wan	-11.3112
successful	-11.3114
colour	-11.3116
threw	-11.3117
expedition	-11.3117
published	-11.3117
oppidum	-11.3118
protector	-11.3118
spanish	-11.3121
appellantur	-11.3125
sumptu	-11.3126
vento	-11.3127
arrow	-11.3135
gradus	-11.3135
carol	-11.3137
cujus	-11.3138
laeta	-11.3139
dionys	-11.3139
conforta	-11.3141
dying	-11.3145
relax	-11.3148
diligit	-11.3153
generis	-11.3154
joshua	-11.3156
pun	-11.3159
relati	-11.3159
viii	-11.3165
quippe	-11.3169
usually	-11.3175
spira	-11.3176
index	-11.3176
toria	-11.3178
determined	-11.3182
iniuria	-11.3184
joan	-11.3184
mittam	-11.3186
pacem	-11.3188
sexta	-11.3189
otherwise	-11.319
occurrerit	-11.3191
francis	-11.3192
cedere	-11.3193
wished	-11.3196
recover	-11.3204
ubique	-11.3206
bringing	-11.3218
impii	-11.3219
tata	-11.322
divit	-11.322
pleasant	-11.3222
resurrect	-11.3223
lorem	-11.3224
affairs	-11.3224
indian	-11.3229
linguis	-11.3234
wickedness	-11.3236
prophetam	-11.3238
remo	-11.3239
phr	-11.3239
communicat	-11.324
saints	-11.3241
pool	-11.3243
understood	-11.3243
everybody	-11.3246
conveniunt	-11.325
quamquam	-11.3252
escaped	-11.3254
martii	-11.3255
architect	-11.3256
ceci	-11.3256
apostles	-11.3257
supposed	-11.3258
intellegi	-11.3259
jeremiah	-11.3259
glorifica	-11.326
mutuam	-11.326
pantas	-11.3264
arose	-11.3264
astro	-11.3272
model	-11.3274
polemoy	-11.3275
drawn	-11.3285
session	-11.3289
vocare	-11.3291
dolorum	-11.3293
cognovit	-11.3294
humans	-11.3296
movie	-11.3296
menses	-11.3296
toytois	-11.3302
gallia	-11.3302
spes	-11.331
horum	-11.3311
abram	-11.3314
bibere	-11.3315
venisti	-11.332
utinam	-11.3324
brings	-11.3326
prohibit	-11.3327
membra	-11.3327
eboraci	-11.3328
highest	-11.3328
apparuit	-11.3328
ationibus	-11.3331
photo	-11.3333
trix	-11.3336
stratia	-11.3336
persecution	-11.3344
erimus	-11.3346
treated	-11.3349
preach	-11.3356
exists	-11.3357
investigation	-11.3359
clouds	-11.3362
dilexi	-11.3364
awesome	-11.3367
opiniones	-11.3369
display	-11.3369
uck	-11.3371
decim	-11.3372
torment	-11.3373
finger	-11.3373
afik	-11.3378
xvi	-11.3378
logic	-11.3378
titus	-11.338
fenestra	-11.338
rvmaioi	-11.338
umbra	-11.338
quaestiones	-11.338
metus	-11.338
abundance	-11.3385
iusti	-11.3385
suit	-11.3391
wounded	-11.3394
plot	-11.3395
goodness	-11.3395
neighbour	-11.3396
coniuncti	-11.3397
septentrionali	-11.34
movement	-11.3404
linguam	-11.3412
hang	-11.3423
clu	-11.3426
track	-11.343
volume	-11.3436
surface	-11.3438
nullam	-11.3438
missum	-11.3439
vivo	-11.3448
ministry	-11.345
dios	-11.3451
bly	-11.3453
county	-11.3453
plura	-11.3461
missus	-11.3461
failed	-11.3468
judica	-11.3472
contradict	-11.3472
nays	-11.3472
finding	-11.3475
summo	-11.3477
hluen	-11.3479
definit	-11.3483
idcirco	-11.3484
medicina	-11.3487
shoulder	-11.3494
fructus	-11.3497
formal	-11.3499
percussit	-11.3506
repentance	-11.3506
cresc	-11.3506
hnai	-11.3506
aware	-11.3508
bible	-11.3509
mandat	-11.3512
habens	-11.3512
eluein	-11.3513
delay	-11.3516
facts	-11.3518
telling	-11.352
ecclesiastic	-11.3524
souls	-11.3531
render	-11.3531
audio	-11.3535
initium	-11.3537
legei	-11.3539
latus	-11.3539
dimitte	-11.3543
rick	-11.3544
trusted	-11.3546
vessels	-11.3549
kim	-11.3549
simus	-11.3549
credidi	-11.3552
hispanic	-11.3552
ample	-11.3554
turpi	-11.3555
forgotten	-11.3558
silva	-11.3558
regions	-11.3559
ggy	-11.356
olive	-11.3561
bab	-11.3564
valet	-11.357
wh	-11.3575
militia	-11.3575
shows	-11.3575
protection	-11.3576
strange	-11.3577
plague	-11.3577
maxh	-11.3581
exult	-11.3584
idols	-11.3589
ulterius	-11.3591
numerous	-11.3592
gloriam	-11.3598
quadra	-11.3604
benedic	-11.3611
xii	-11.3612
basileys	-11.3612
christmas	-11.3613
audiat	-11.3614
repeat	-11.3619
lakedaimonioi	-11.362
unique	-11.3624
venisset	-11.3626
instruction	-11.363
pauci	-11.3631
grass	-11.3633
accusat	-11.3633
ministerium	-11.3636
persecuti	-11.3638
primam	-11.3645
misera	-11.3646
uero	-11.3646
venio	-11.3647
pav	-11.3652
condemned	-11.3652
misc	-11.3654
belgi	-11.3659
auhna	-11.3666
scimus	-11.3668
sixth	-11.3669
logica	-11.367
volunteer	-11.3671
legati	-11.3672
shop	-11.368
fulfilled	-11.3686
charity	-11.3686
sermones	-11.3688
vor	-11.3691
uentes	-11.3695
arca	-11.3696
universo	-11.37
persecute	-11.37
survive	-11.37
slew	-11.3706
turning	-11.3708
meal	-11.3711
gentium	-11.3712
arts	-11.3712
nostros	-11.3714
nuntii	-11.3718
plenty	-11.3721
equitatu	-11.3723
speciem	-11.3724
ministri	-11.3726
described	-11.3727
visibili	-11.3734
martha	-11.3734
aperta	-11.3736
servum	-11.3738
praemissa	-11.3739
xxx	-11.3739
cognition	-11.3744
owned	-11.3746
milk	-11.3748
decima	-11.3749
beneficia	-11.3751
certi	-11.3753
cibus	-11.3754
solitudine	-11.3755
fraud	-11.3755
ingressus	-11.3757
naturam	-11.3767
incend	-11.3768
iustific	-11.3769
dabit	-11.3771
loc	-11.3778
creavit	-11.3779
percent	-11.3782
omai	-11.3784
entos	-11.3784
supreme	-11.3785
collig	-11.3785
shepherd	-11.3795
mentis	-11.38
confirm	-11.3801
prefer	-11.3803
suorum	-11.3809
phy	-11.381
habemus	-11.3812
remot	-11.3814
ordo	-11.3815
maris	-11.3816
robust	-11.3818
gaul	-11.3824
dvr	-11.3827
located	-11.3834
magistratu	-11.3835
kalli	-11.3837
pping	-11.3837
couple	-11.3839
patience	-11.3842
sacrificium	-11.3845
appears	-11.3846
jec	-11.385
bush	-11.385
iustitiam	-11.385
cancer	-11.3852
paulo	-11.3852
alicui	-11.3854
amas	-11.3855
kam	-11.3855
trick	-11.3856
cetero	-11.3857
laps	-11.3857
iesum	-11.3859
description	-11.386
stage	-11.3862
tenebris	-11.3862
menhs	-11.3864
monia	-11.3866
mutation	-11.3866
gladio	-11.3872
internet	-11.3872
demonstrat	-11.3872
immortales	-11.3875
alex	-11.3879
magistra	-11.3882
resuscita	-11.3882
smart	-11.3882
uev	-11.3883
liberi	-11.3884
mutare	-11.3886
ianus	-11.3894
perge	-11.3894
interfici	-11.3896
scam	-11.3898
fields	-11.3898
shoot	-11.39
septuaginta	-11.3901
dwelt	-11.3901
diff	-11.3905
gegon	-11.3907
kiss	-11.3909
beg	-11.3915
liz	-11.3917
pluvia	-11.3919
seized	-11.3919
secondary	-11.3923
unionis	-11.3934
vulnera	-11.3936
uncle	-11.3942
rescue	-11.3944
systema	-11.3945
photograph	-11.3951
wheel	-11.3954
textu	-11.396
bain	-11.3964
condita	-11.3965
factio	-11.3965
difficulty	-11.3966
imago	-11.3966
levat	-11.3967
pillar	-11.3967
psycho	-11.3967
precious	-11.3968
amant	-11.3969
experientia	-11.3974
postremo	-11.3975
proprium	-11.3975
dicimus	-11.3978
nah	-11.3987
ergon	-11.3992
milites	-11.3992
novit	-11.3993
reliquit	-11.3995
infinita	-11.4002
iudicio	-11.4004
testamento	-11.4007
classic	-11.4008
tuler	-11.401
plunder	-11.4014
winds	-11.4017
accused	-11.4023
prophesy	-11.4026
discover	-11.4027
possumus	-11.4028
produced	-11.4028
salutation	-11.4029
vivent	-11.4038
negoti	-11.4038
mexri	-11.4038
semi	-11.4043
ouen	-11.4048
iudices	-11.4053
exalted	-11.4055
cultural	-11.4057
boot	-11.4059
collegi	-11.4064
iudicat	-11.4071
quaeritur	-11.4073
torium	-11.4074
suck	-11.408
police	-11.4081
consideration	-11.4081
istius	-11.4082
positum	-11.4084
praefect	-11.4085
possibly	-11.4098
irr	-11.4099
canaan	-11.41
professional	-11.4101
concupisc	-11.4103
proved	-11.4109
interrogat	-11.4109
argumentum	-11.4109
dollar	-11.411
encourage	-11.4111
services	-11.4112
lovely	-11.4113
waited	-11.4113
comiti	-11.412
comparison	-11.412
confident	-11.4124
bak	-11.4128
professor	-11.4128
socio	-11.4128
leaders	-11.4132
uid	-11.4135
bury	-11.4136
cursus	-11.414
pellicula	-11.4142
organization	-11.4142
modus	-11.4146
culus	-11.4147
ampli	-11.4151
tractare	-11.4153
leader	-11.4154
flat	-11.4156
barn	-11.4157
imaginem	-11.4157
wake	-11.4158
syg	-11.4158
muhammad	-11.4158
ipsius	-11.416
dwelling	-11.416
risus	-11.4163
glass	-11.4164
naturalis	-11.4167
manet	-11.4175
talis	-11.4176
aytoi	-11.4182
confirmed	-11.4182
vu	-11.4184
xrys	-11.4184
zeal	-11.4189
heal	-11.419
sero	-11.4194
increased	-11.4197
corinth	-11.4198
thrown	-11.4204
reality	-11.4205
bias	-11.4208
habesne	-11.4212
weeks	-11.4213
matre	-11.4214
resolution	-11.4214
parliament	-11.4217
discern	-11.4218
praecepta	-11.4218
glorified	-11.4218
visum	-11.4225
soft	-11.4228
rider	-11.423
benefit	-11.4232
effort	-11.4237
vestimenta	-11.4237
hannibal	-11.4237
cil	-11.424
amice	-11.424
advanced	-11.4241
debent	-11.4246
beatus	-11.4248
homer	-11.4248
task	-11.4251
ikoy	-11.4253
perpetua	-11.4254
posteriores	-11.4255
chariot	-11.426
defence	-11.4266
cult	-11.4271
teles	-11.4284
reddi	-11.4284
beasts	-11.4285
hardly	-11.4285
xoy	-11.4286
philo	-11.4288
capti	-11.4289
oracle	-11.4293
pratt	-11.4294
istum	-11.4305
pueros	-11.4306
rachel	-11.4307
beris	-11.4308
optimum	-11.4313
perfectum	-11.4313
dominica	-11.4314
smaller	-11.4314
peccator	-11.4314
cogni	-11.4315
urbes	-11.4318
refert	-11.4319
somewhat	-11.432
dormire	-11.432
additional	-11.432
sinned	-11.4321
tang	-11.4322
puero	-11.4323
puni	-11.4323
complex	-11.4323
laborat	-11.4324
sanguis	-11.4324
fortes	-11.4328
submit	-11.4329
frag	-11.4331
reddiderit	-11.4332
hail	-11.4333
stup	-11.4334
ploy	-11.4334
suscitabit	-11.4335
nuclear	-11.4335
lawful	-11.4341
testes	-11.4346
britanni	-11.4349
hmera	-11.4349
sentit	-11.4352
infra	-11.4358
adopt	-11.4363
corinthians	-11.4363
witnesses	-11.4364
numerum	-11.4364
legoysin	-11.4369
corner	-11.4373
devour	-11.4374
politici	-11.4374
manage	-11.4376
ilius	-11.4377
oligo	-11.4378
caesarem	-11.4379
graphic	-11.4381
hken	-11.4383
feels	-11.4384
yf	-11.4384
foss	-11.4387
parata	-11.439
auxiliator	-11.4391
ueos	-11.4393
oien	-11.4395
wilt	-11.4396
proverb	-11.4397
boast	-11.4398
jesu	-11.4399
credenti	-11.44
persist	-11.4401
singing	-11.4402
horsemen	-11.4405
doloremque	-11.4409
surrender	-11.4411
pressed	-11.4412
peccatores	-11.4413
instance	-11.4414
eluvn	-11.4427
crowd	-11.4429
loquere	-11.4431
chamber	-11.4433
flores	-11.4435
fecisse	-11.4439
asian	-11.4439
curse	-11.4439
allvn	-11.4441
fierce	-11.4442
expectation	-11.4442
bronze	-11.4444
axai	-11.4446
application	-11.4447
lius	-11.4449
ceteri	-11.4453
surprise	-11.4455
revolution	-11.4465
wander	-11.4466
california	-11.4467
stir	-11.4468
vinea	-11.4468
discovered	-11.447
ventum	-11.4472
grew	-11.4473
japan	-11.4473
rules	-11.4476
recede	-11.4476
subdit	-11.4481
cubits	-11.4487
department	-11.4491
competit	-11.4491
sentire	-11.45
responsio	-11.4502
totally	-11.4502
fhs	-11.4503
pacis	-11.4506
naked	-11.4507
monon	-11.4507
ically	-11.4507
disputare	-11.4508
jonathan	-11.4508
drove	-11.4511
videns	-11.4512
rapid	-11.4512
swore	-11.4513
scriptures	-11.4513
insidia	-11.4514
legatus	-11.4514
independent	-11.4516
const	-11.4517
lucky	-11.4518
propositio	-11.4518
detail	-11.4518
match	-11.4524
pais	-11.4525
japanese	-11.4531
transgression	-11.4533
kath	-11.4533
valor	-11.4535
olympic	-11.4537
maz	-11.4538
tico	-11.4538
uayma	-11.4541
pervenire	-11.4541
aka	-11.4542
somebody	-11.4546
mosen	-11.455
vineyard	-11.4551
consistit	-11.4552
ostium	-11.4553
watching	-11.4559
farmer	-11.4561
ivus	-11.4563
turns	-11.4563
baptized	-11.4565
necessity	-11.4566
savior	-11.4566
simpliciter	-11.4568
bc	-11.4568
hgoy	-11.4569
strateyma	-11.4572
moments	-11.4578
performed	-11.458
casino	-11.458
washed	-11.4585
lectio	-11.4585
feared	-11.4585
goal	-11.4586
loqueris	-11.459
permanent	-11.459
ggi	-11.4593
soviet	-11.4596
atomic	-11.4596
damus	-11.4598
bother	-11.4602
heavens	-11.4605
energy	-11.4606
pik	-11.4606
rear	-11.4607
firma	-11.4608
floor	-11.4608
labvn	-11.4609
virtus	-11.4609
alta	-11.461
digni	-11.4615
distinction	-11.4617
mourn	-11.462
spent	-11.4622
perdere	-11.4626
presb	-11.4628
sailed	-11.4629
programma	-11.4631
genesis	-11.4635
separated	-11.4639
auhnaioi	-11.464
probation	-11.4641
gir	-11.4641
obtain	-11.4641
towns	-11.4644
polemon	-11.4645
relinque	-11.4646
lk	-11.4649
tenth	-11.4652
scripsi	-11.4653
corpo	-11.4653
semalt	-11.4655
gli	-11.4656
exonta	-11.4663
paru	-11.4664
hospital	-11.4675
cogitation	-11.468
pragma	-11.4683
controversia	-11.4683
vatican	-11.4684
supplic	-11.4688
intelligi	-11.469
rising	-11.4693
dignity	-11.4701
academic	-11.4705
ikvn	-11.4705
elephant	-11.4706
terrible	-11.4706
proteron	-11.4708
manere	-11.4709
cupid	-11.4709
proprietate	-11.4711
phras	-11.4717
verumtamen	-11.4719
macula	-11.4722
genuine	-11.4724
sapientes	-11.4726
defect	-11.4727
ideas	-11.4729
prevail	-11.4732
mutat	-11.4745
poster	-11.4746
investigat	-11.4747
dominion	-11.4748
insani	-11.475
wings	-11.475
surgit	-11.4752
velut	-11.4752
salutanti	-11.4755
flood	-11.4755
club	-11.4756
leads	-11.4763
warning	-11.4765
larger	-11.4767
vect	-11.477
voluntas	-11.4774
ajio	-11.4775
ibidem	-11.4775
elementa	-11.4776
nescit	-11.4778
accusation	-11.4778
memento	-11.4784
format	-11.4784
possim	-11.4785
mhden	-11.4785
flo	-11.4787
vespere	-11.4787
celebr	-11.4787
latina	-11.4788
voluptates	-11.479
whenever	-11.4791
tail	-11.4795
woo	-11.4796
captive	-11.4797
mario	-11.48
manager	-11.4801
consilii	-11.4802
treatment	-11.4803
hypo	-11.4807
alterius	-11.4817
copy	-11.4821
circle	-11.4823
debemus	-11.4825
grata	-11.4825
maximus	-11.4827
judged	-11.4828
palla	-11.483
austral	-11.483
communist	-11.4831
flora	-11.4834
peira	-11.4834
damas	-11.4837
labi	-11.4837
utterly	-11.4842
suggestions	-11.4845
coc	-11.4845
fed	-11.4847
reasons	-11.4856
totius	-11.486
ossa	-11.4861
acquire	-11.4865
samenos	-11.4865
tracta	-11.4866
aliena	-11.4867
materiam	-11.4874
restored	-11.4875
contention	-11.4876
videntur	-11.4883
testimonia	-11.4884
capable	-11.4899
multitudo	-11.4905
accessi	-11.4905
salutationem	-11.4906
ianua	-11.491
quondam	-11.4915
betray	-11.4916
struct	-11.4923
haberet	-11.4924
edge	-11.4925
obiecti	-11.4926
healing	-11.4927
grief	-11.4933
electric	-11.4934
grain	-11.4935
locis	-11.494
iniquitate	-11.4941
trium	-11.4942
jar	-11.4942
impression	-11.4945
iaponia	-11.4946
click	-11.4948
pity	-11.4949
hatred	-11.4949
iensis	-11.4949
clima	-11.495
posuerunt	-11.4957
fred	-11.4965
hsas	-11.4966
indulge	-11.4967
holocaust	-11.4971
faciendum	-11.4972
transgress	-11.4972
pharaonis	-11.4973
matth	-11.4982
eucharist	-11.4988
aurea	-11.4994
ignem	-11.4995
nubes	-11.4998
spit	-11.4999
fuisti	-11.5
lions	-11.5001
chil	-11.5002
cheer	-11.5003
portu	-11.5003
merciful	-11.5005
americana	-11.5007
pactum	-11.5007
ordinari	-11.5007
pound	-11.5009
rica	-11.501
positive	-11.5018
declina	-11.5021
gained	-11.5024
minibus	-11.5025
misi	-11.5026
vincere	-11.5028
medicus	-11.5033
izing	-11.5038
possessionem	-11.504
fies	-11.5048
vetus	-11.505
contemn	-11.5051
dicetur	-11.5051
demonstra	-11.5053
andras	-11.5058
settle	-11.506
versari	-11.5062
procul	-11.5065
dispers	-11.5066
amazing	-11.5069
fylak	-11.507
libertatem	-11.5076
negotio	-11.5077
cruel	-11.5081
consu	-11.5086
initial	-11.5086
convenire	-11.5094
considerat	-11.5101
idiot	-11.5103
doth	-11.5109
fucking	-11.5111
dextimos	-11.5111
phal	-11.5114
hosts	-11.5114
saeculo	-11.5115
intellege	-11.5119
thyself	-11.512
dextera	-11.5124
fifteen	-11.5125
herod	-11.5125
signification	-11.5126
carp	-11.5128
diction	-11.513
license	-11.513
peccatis	-11.5132
observed	-11.5133
appoint	-11.5137
drom	-11.5138
fabrica	-11.5143
canada	-11.5144
presbyter	-11.515
arxhs	-11.5151
plerumque	-11.5153
helen	-11.5154
cles	-11.5154
haud	-11.5155
slaughter	-11.5157
augustus	-11.5158
stayed	-11.5162
involved	-11.5163
humiliat	-11.5164
jai	-11.5167
dicant	-11.5171
iudicia	-11.5172
arxhn	-11.5174
elijah	-11.5175
venisse	-11.5179
ography	-11.5183
voluntate	-11.5184
rebell	-11.5189
incense	-11.5191
sacrifices	-11.5193
moth	-11.5196
reigned	-11.5201
plo	-11.5207
polloys	-11.5209
uz	-11.5211
sharp	-11.5217
aspectu	-11.5218
venerat	-11.5222
institution	-11.5223
tranquil	-11.5228
publish	-11.5233
highly	-11.5235
aegyptum	-11.5237
ducent	-11.5244
credam	-11.5245
liberat	-11.5252
played	-11.5252
cruce	-11.5255
fruits	-11.5256
revel	-11.5256
crediderunt	-11.5259
average	-11.5259
solent	-11.5263
fulfill	-11.5267
appellatur	-11.5272
iuven	-11.5273
ymeis	-11.5273
motu	-11.5274
ierusalem	-11.5276
dioecesi	-11.5278
reproach	-11.528
quaecumque	-11.528
existentia	-11.5281
gab	-11.5283
discipulis	-11.5284
venias	-11.5284
exile	-11.5285
timo	-11.5286
devo	-11.5288
motor	-11.529
participat	-11.5292
utilis	-11.5295
cfr	-11.5297
cubit	-11.5299
diabolus	-11.5299
devora	-11.5316
tribune	-11.5316
tificat	-11.5319
gging	-11.5319
rationis	-11.5321
academy	-11.5322
association	-11.5322
scrip	-11.5323
barbari	-11.5326
adiuva	-11.5326
correspond	-11.5334
florida	-11.5342
tradidit	-11.5342
plurima	-11.5345
subvert	-11.5345
oikia	-11.5348
fructum	-11.535
cake	-11.5352
spice	-11.5353
passage	-11.5353
zesuai	-11.5354
integra	-11.5355
pompey	-11.5357
losing	-11.5357
poiei	-11.5358
pursue	-11.5361
overcome	-11.5362
opposed	-11.5362
loan	-11.5364
scattered	-11.5365
director	-11.5368
caritate	-11.5382
slow	-11.5384
xiii	-11.5389
finita	-11.5393
verb	-11.5401
curat	-11.5402
omoy	-11.5406
keleys	-11.5406
benjamin	-11.5407
egressi	-11.5407
ahab	-11.5408
connect	-11.5409
hook	-11.5412
artist	-11.5416
symp	-11.5418
eleyuer	-11.5419
quintus	-11.5423
liter	-11.5423
inimicos	-11.5426
pronounce	-11.5435
pompeius	-11.5437
invited	-11.5438
occident	-11.544
prophetas	-11.5441
deprec	-11.5444
girls	-11.5445
timere	-11.5447
invention	-11.5447
ensibus	-11.5452
damage	-11.5453
seventy	-11.5457
aures	-11.5466
terrarum	-11.5467
optime	-11.5469
committee	-11.5473
ashamed	-11.5474
familias	-11.5476
abide	-11.5479
client	-11.5479
promises	-11.5488
editor	-11.5489
proxima	-11.549
pneyma	-11.5492
matrimonium	-11.5492
attorney	-11.5492
discere	-11.5493
aliqui	-11.5494
destru	-11.5495
credis	-11.5495
dawn	-11.5499
desires	-11.5499
poetry	-11.5501
greet	-11.5509
composition	-11.551
ridiculous	-11.5512
huiusmodi	-11.5516
brown	-11.5517
pher	-11.5519
richard	-11.5519
oak	-11.552
remaining	-11.5521
generally	-11.5522
klhs	-11.5527
formandi	-11.5527
wow	-11.5529
owing	-11.553
interval	-11.5531
seren	-11.5532
trained	-11.5532
naturally	-11.5539
persuasi	-11.5542
intent	-11.5544
operatur	-11.5545
strengthen	-11.5546
cedent	-11.5546
reveal	-11.5546
extreme	-11.5546
idoy	-11.5547
veloci	-11.5549
babylonis	-11.5551
munera	-11.5552
abilis	-11.5552
solito	-11.5556
posted	-11.5557
sodom	-11.5562
polemivn	-11.557
xiv	-11.5572
vado	-11.5577
cardinal	-11.5579
negative	-11.558
inferos	-11.5581
clamor	-11.5588
ipsis	-11.5589
anurvpoy	-11.559
argumenta	-11.5592
pair	-11.5593
cash	-11.5594
molli	-11.5595
uzz	-11.5598
satisfied	-11.5598
persuade	-11.5599
hills	-11.56
prophecy	-11.5605
ulis	-11.5606
fama	-11.5608
fuerant	-11.5611
healed	-11.5614
praeda	-11.5619
inventa	-11.5621
cyr	-11.5621
poleis	-11.5624
iussit	-11.5625
dulci	-11.5627
rejected	-11.5628
lavi	-11.5632
solet	-11.5637
consolation	-11.5637
busy	-11.5638
cases	-11.5638
obtained	-11.5639
afford	-11.564
uisti	-11.5642
colonia	-11.5643
praesenti	-11.5645
authentic	-11.5646
beneath	-11.5647
verily	-11.5648
centre	-11.565
bearing	-11.5653
generat	-11.5655
xrhmata	-11.5656
benefits	-11.5663
daemon	-11.5664
imperio	-11.5669
machus	-11.5669
bilia	-11.567
expand	-11.5673
communication	-11.5676
adrian	-11.5677
temperatur	-11.5677
polemioi	-11.5678
horns	-11.5679
kyn	-11.5679
siege	-11.5683
viola	-11.5686
structure	-11.5687
amorem	-11.5688
quicquid	-11.5688
quaerere	-11.5693
steal	-11.5694
ienai	-11.5699
ghost	-11.5699
antvni	-11.57
captur	-11.5708
saturn	-11.5709
resurrectionem	-11.571
afflict	-11.5712
oyran	-11.5713
mistakes	-11.5714
accomplish	-11.5719
arxai	-11.5722
zero	-11.5722
distress	-11.5728
contempt	-11.5731
moyses	-11.5733
teroi	-11.5736
nix	-11.5739
festi	-11.5741
muni	-11.5743
inherit	-11.5745
defensio	-11.575
included	-11.5751
benedict	-11.5751
domain	-11.5755
salam	-11.5755
thra	-11.5759
payment	-11.5763
leges	-11.5768
poiein	-11.5769
planeta	-11.5769
suscipi	-11.577
block	-11.5771
lament	-11.5772
narrat	-11.5773
casus	-11.5776
putting	-11.5776
anurvpvn	-11.5779
asty	-11.5779
galaad	-11.578
psal	-11.5785
adventu	-11.5786
solemn	-11.5786
computat	-11.5786
secundam	-11.5787
contrario	-11.5788
detect	-11.5789
provinces	-11.5797
mysterium	-11.5798
fidel	-11.5799
persevere	-11.5801
dumb	-11.5802
brass	-11.5804
artemis	-11.5804
taythn	-11.5808
virtues	-11.5809
nap	-11.5815
eaten	-11.5816
formation	-11.5817
dressed	-11.5818
yvn	-11.5819
shot	-11.582
challenge	-11.582
osoi	-11.582
viris	-11.5821
affection	-11.5825
parati	-11.5827
vendere	-11.5829
nou	-11.5829
signor	-11.5833
ridet	-11.5837
dell	-11.5837
vivet	-11.584
secundus	-11.5842
mathematica	-11.5843
numbered	-11.5847
gay	-11.5849
stronger	-11.5853
expression	-11.5855
reported	-11.5857
ceteris	-11.5859
gratis	-11.5859
respondet	-11.586
consumed	-11.5861
poured	-11.5862
stultus	-11.5865
pharisaei	-11.5865
hmeras	-11.5868
britain	-11.5868
ornament	-11.5873
chair	-11.5873
aura	-11.5874
corda	-11.5876
messengers	-11.5876
impress	-11.5881
stories	-11.5883
ilium	-11.5886
zach	-11.5887
galilee	-11.5891
ascensor	-11.5891
invest	-11.5899
cognation	-11.59
aedificat	-11.5904
suffrag	-11.5909
adolescent	-11.5909
pharisees	-11.5912
propiti	-11.5912
dhmos	-11.5916
aytika	-11.5919
mobile	-11.5921
designat	-11.5924
semel	-11.5929
divorce	-11.593
dedica	-11.593
situm	-11.593
quaesumus	-11.5931
dubai	-11.5933
credi	-11.5937
salutis	-11.5939
circumstances	-11.5944
ostende	-11.5948
vocant	-11.5952
relationes	-11.5953
logv	-11.5955
veneta	-11.5959
ambi	-11.5966
vntai	-11.5967
possis	-11.5968
perfici	-11.5971
fratris	-11.5972
gynaika	-11.5974
careful	-11.5974
monstra	-11.5975
liu	-11.5979
ferro	-11.5984
regnavit	-11.5985
creative	-11.5987
focus	-11.5989
ihsoy	-11.5993
novam	-11.5994
genh	-11.5995
dubio	-11.5996
machine	-11.5996
laban	-11.5999
delphi	-11.6
curriculum	-11.6
habito	-11.6001
cursu	-11.6001
foedus	-11.6002
bohu	-11.6008
conturb	-11.6009
indignation	-11.601
orio	-11.601
fluent	-11.601
miserunt	-11.6014
gubernator	-11.6014
distantia	-11.6015
interitu	-11.6015
coffee	-11.6015
loci	-11.6016
iuvenes	-11.6018
pilate	-11.6018
saba	-11.6019
ekeinoy	-11.6023
praeceptum	-11.6023
societas	-11.6023
matutini	-11.6024
sweat	-11.6024
widow	-11.6024
traditional	-11.6025
sati	-11.6029
scias	-11.6031
conple	-11.6032
acknowledg	-11.6033
mortali	-11.6039
persa	-11.6042
trumpet	-11.6046
recess	-11.6049
garments	-11.6052
pertinent	-11.6053
nurse	-11.6056
ascender	-11.6059
negotia	-11.6061
metal	-11.6065
hebron	-11.6072
pleni	-11.6072
leones	-11.6073
mulieres	-11.6076
production	-11.6076
bern	-11.6082
dubito	-11.6082
cometh	-11.6083
songs	-11.6083
salvator	-11.6085
immola	-11.6086
aliquem	-11.6092
guerra	-11.6093
videbo	-11.6094
fyl	-11.6096
ejv	-11.6099
heracles	-11.6099
neglect	-11.61
utrumque	-11.6102
interesting	-11.6104
recti	-11.6109
uevn	-11.611
matutinum	-11.6113
episcopus	-11.6116
divisio	-11.6116
observation	-11.6118
bah	-11.6118
mox	-11.6125
ordinary	-11.6136
demons	-11.6136
purchase	-11.6139
subsequent	-11.614
vehementer	-11.6142
restore	-11.6142
whosoever	-11.6143
referred	-11.6148
dicti	-11.6149
ingressi	-11.6152
placent	-11.6155
brutus	-11.6157
praesertim	-11.6159
vitia	-11.616
industria	-11.6162
sudden	-11.617
alp	-11.6172
poterant	-11.6173
libra	-11.6184
nunquid	-11.6186
rapi	-11.619
natum	-11.619
gaudio	-11.6194
minime	-11.6198
gap	-11.6199
eury	-11.6199
greeting	-11.6199
aprilis	-11.6201
southern	-11.6202
windows	-11.6204
exod	-11.6204
cab	-11.6213
doloribus	-11.6214
punish	-11.6217
procedit	-11.6218
patrum	-11.622
audierunt	-11.6221
obedient	-11.6227
lumina	-11.6227
skeyas	-11.6229
cogit	-11.623
cious	-11.6234
murmur	-11.6237
quarters	-11.6239
owed	-11.6248
thebans	-11.625
extent	-11.6251
sciebat	-11.6253
desidero	-11.6254
completed	-11.6254
concede	-11.6255
kay	-11.6257
jhn	-11.6267
exercitu	-11.6267
communia	-11.6268
tuorum	-11.6268
everyday	-11.627
vivunt	-11.6277
cecidit	-11.6278
possessed	-11.6279
bind	-11.6286
nico	-11.6286
logon	-11.6288
horror	-11.6289
struggle	-11.629
elder	-11.6291
charm	-11.6294
passing	-11.6295
sublimi	-11.6297
orientem	-11.6298
voci	-11.63
development	-11.6303
grove	-11.631
fying	-11.6315
starting	-11.6319
negotium	-11.632
menhn	-11.6322
praemium	-11.6323
wishes	-11.6324
dictator	-11.6326
inclina	-11.6328
parable	-11.6329
videbit	-11.6331
inspired	-11.6337
crep	-11.6338
aetate	-11.6338
alba	-11.6343
role	-11.6344
abuntur	-11.6346
stulti	-11.6349
memories	-11.6353
recus	-11.6363
ihsoys	-11.6364
coach	-11.6367
entrance	-11.6368
hymn	-11.637
abscondit	-11.6374
ieiun	-11.6376
dissolu	-11.6378
abomina	-11.6379
terminat	-11.638
merely	-11.6384
percuti	-11.6387
reliqu	-11.6391
interdum	-11.6393
marvel	-11.6394
kraths	-11.6395
apostolo	-11.6396
perfectly	-11.6398
posterior	-11.6399
affliction	-11.6399
cultu	-11.6399
possent	-11.6401
assist	-11.6405
settled	-11.6406
dixisset	-11.6408
balance	-11.641
argentum	-11.6411
prodi	-11.6412
alloys	-11.6412
capita	-11.6413
islamic	-11.6414
xvran	-11.6414
incolarum	-11.6417
reddit	-11.6418
epimel	-11.6421
addit	-11.643
societatis	-11.6431
trump	-11.6433
funeral	-11.6438
pariter	-11.6439
supply	-11.6439
sententiam	-11.644
audience	-11.6441
popul	-11.6443
accomplished	-11.6445
reflect	-11.6448
ullus	-11.6451
nicola	-11.6451
gymnas	-11.6455
upright	-11.6456
christiana	-11.646
ignorat	-11.646
hostes	-11.6463
unfortunately	-11.6465
lecto	-11.6466
unusquisque	-11.6467
suspend	-11.6468
liberty	-11.6469
angelo	-11.6475
wearing	-11.6476
singulis	-11.6476
jean	-11.6482
responsum	-11.6482
wolf	-11.6488
istud	-11.6491
fulness	-11.6491
scunt	-11.6492
commodo	-11.6492
opla	-11.6493
begins	-11.6495
excess	-11.6502
iosue	-11.6503
sustain	-11.6505
chariots	-11.6513
sapiens	-11.6513
connection	-11.6515
abandoned	-11.652
facient	-11.6521
discrimin	-11.6521
exontes	-11.6523
lawyer	-11.6526
penn	-11.6532
tractat	-11.6533
dulce	-11.6534
previously	-11.6535
mock	-11.6537
citat	-11.6541
hypocrit	-11.6543
bomb	-11.6544
caritas	-11.6544
leap	-11.6549
invidia	-11.6549
historical	-11.6552
fundamenta	-11.6553
reject	-11.6553
habentes	-11.6554
oida	-11.6554
credidit	-11.6554
qualitate	-11.6556
bibit	-11.6556
splendid	-11.6556
templi	-11.6558
profecto	-11.6558
discuss	-11.6559
manasse	-11.6559
civium	-11.656
judas	-11.6567
vasa	-11.6571
brief	-11.6579
attacked	-11.6579
vacua	-11.6581
simila	-11.6581
facultate	-11.6584
albert	-11.6585
whatsoever	-11.6587
calcul	-11.6589
concern	-11.659
logoy	-11.6591
syl	-11.6592
venu	-11.6595
captains	-11.6598
infect	-11.6601
kris	-11.6601
londinii	-11.6603
exemplar	-11.6604
civit	-11.6606
northern	-11.6606
prohibere	-11.6609
ddl	-11.6613
missio	-11.6613
aedificavit	-11.6616
corps	-11.6617
actiones	-11.6618
lity	-11.6619
mixed	-11.6622
apostoli	-11.6625
septentrion	-11.6626
islam	-11.6629
gentem	-11.663
loyal	-11.6631
carrying	-11.6632
desiderat	-11.6635
imperii	-11.6635
october	-11.6637
dederunt	-11.664
television	-11.6643
fhn	-11.6645
iunii	-11.6646
fueris	-11.6647
interested	-11.6648
vigilia	-11.6653
govern	-11.6654
accommoda	-11.6656
cursed	-11.6659
introduced	-11.6661
showing	-11.6662
speaker	-11.6662
progredi	-11.6665
surname	-11.6667
notitia	-11.6671
chf	-11.6672
hither	-11.6672
disposition	-11.6675
operibus	-11.6676
younger	-11.6679
signis	-11.668
sepeli	-11.668
kaisaros	-11.6681
proximi	-11.6683
desolate	-11.6684
forsaken	-11.6684
thunder	-11.6685
louis	-11.6687
admire	-11.6689
qualiter	-11.6697
foeder	-11.6698
worst	-11.67
virgo	-11.67
tomorrow	-11.6702
almighty	-11.6704
procurator	-11.6705
adiuv	-11.6707
multiply	-11.6708
munere	-11.6709
hip	-11.671
vocati	-11.6711
duxerunt	-11.6713
sciat	-11.6714
antonio	-11.6715
praised	-11.6715
nolo	-11.672
paene	-11.672
scribit	-11.672
dilectio	-11.6721
harvest	-11.6722
occupied	-11.6728
ucci	-11.673
crossed	-11.673
suggestiones	-11.673
pasa	-11.6732
vig	-11.6733
customer	-11.6742
famine	-11.6742
plag	-11.6743
melle	-11.6746
horre	-11.6746
intended	-11.6747
vocatur	-11.6748
clamavit	-11.6764
mirum	-11.6765
lacedaemon	-11.6768
calami	-11.6768
scribam	-11.6775
buc	-11.6775
numerat	-11.6777
operari	-11.6778
alleluia	-11.6779
redirectum	-11.678
columba	-11.6781
respondent	-11.6781
testify	-11.6782
stabili	-11.6788
divk	-11.6789
fortunate	-11.679
touched	-11.6792
bilem	-11.6794
libya	-11.6797
defender	-11.6798
visited	-11.6798
hmeis	-11.6798
secundi	-11.6799
scorpion	-11.6802
teeth	-11.6803
spouse	-11.6805
terrena	-11.6808
hippo	-11.6808
skipivn	-11.6809
iratus	-11.6812
womb	-11.6816
xalk	-11.6818
odos	-11.6821
sapienti	-11.6822
weep	-11.6824
tough	-11.6827
provisions	-11.6829
egyptians	-11.6831
conference	-11.6831
slept	-11.6831
trac	-11.6835
recensere	-11.6835
everywhere	-11.6836
waves	-11.6838
fontes	-11.6839
aeneas	-11.6841
miseria	-11.6842
stretch	-11.6846
sarah	-11.6846
klei	-11.6849
socia	-11.685
hyper	-11.6853
denied	-11.6853
kry	-11.6855
walking	-11.686
censor	-11.6863
scribitur	-11.6863
witch	-11.6866
surrounded	-11.687
oyntvn	-11.6871
directly	-11.6872
psy	-11.6873
musical	-11.6875
palai	-11.6875
unio	-11.6878
reipublicae	-11.6879
activa	-11.688
febr	-11.6882
spem	-11.6883
aeterna	-11.6884
conversa	-11.6886
falsi	-11.6891
guardian	-11.6893
merge	-11.6897
adhibe	-11.6899
belongs	-11.6902
iniquitati	-11.6903
plural	-11.6906
viderit	-11.6907
recens	-11.691
societate	-11.6913
sempiternum	-11.6913
parum	-11.692
cloth	-11.692
violat	-11.6922
universitate	-11.6925
militum	-11.6928
rectissimi	-11.6928
inferno	-11.6932
abroad	-11.6933
whence	-11.6934
riches	-11.6935
domui	-11.6941
feminam	-11.6942
applied	-11.695
applic	-11.6952
software	-11.6954
hay	-11.6957
lol	-11.6957
cinema	-11.6957
urbi	-11.6962
giant	-11.6964
kauh	-11.6965
annual	-11.697
jah	-11.6973
michi	-11.6976
legetai	-11.6978
beniamin	-11.6979
postulo	-11.6982
patron	-11.6986
bottom	-11.699
boylomen	-11.6992
explanation	-11.6992
sequenti	-11.6992
oratione	-11.6998
agger	-11.7001
henri	-11.7004
elements	-11.7005
circ	-11.7005
qualem	-11.7016
relationships	-11.7018
meditation	-11.702
posui	-11.7022
insult	-11.7023
civitatibus	-11.7023
novembris	-11.7025
remembered	-11.7026
cordis	-11.7028
abimelech	-11.7029
habitatores	-11.703
pressure	-11.7033
missing	-11.7036
honestly	-11.7037
proceeded	-11.7037
romania	-11.7044
troubled	-11.7047
xesuai	-11.7049
bau	-11.705
nymph	-11.7053
defense	-11.7054
rumque	-11.7056
dissolv	-11.7056
opp	-11.7057
festina	-11.7057
lix	-11.7064
wept	-11.7072
contradiction	-11.7076
dimension	-11.7077
ingenio	-11.7077
theatre	-11.708
qur	-11.7081
explained	-11.7082
exterior	-11.7083
tension	-11.7084
xenophon	-11.7084
counter	-11.7085
pardon	-11.7088
matvn	-11.7088
continually	-11.7105
hluon	-11.7105
adultery	-11.7107
transport	-11.711
clock	-11.7114
anointed	-11.7115
regum	-11.7118
fuere	-11.712
arabia	-11.712
xronon	-11.7122
anak	-11.7123
import	-11.7124
philosophi	-11.7125
genu	-11.7126
silly	-11.7127
ordinis	-11.7128
bulgaria	-11.7128
aiah	-11.7138
multiple	-11.7139
principia	-11.7142
februarii	-11.7146
defeated	-11.7151
cooper	-11.7151
honorem	-11.7153
privati	-11.7154
firstborn	-11.7156
salutari	-11.7158
loquuntur	-11.7159
jess	-11.7164
cantare	-11.7166
orig	-11.717
disciple	-11.7173
estimate	-11.7173
ferri	-11.7178
eunuch	-11.7183
variety	-11.7183
memoriam	-11.7186
vocation	-11.7193
eixon	-11.7194
dierum	-11.72
predict	-11.7201
approv	-11.7203
reduced	-11.7205
geographic	-11.7206
socii	-11.7206
lectur	-11.7207
entry	-11.721
pagan	-11.7215
multitudine	-11.7215
simi	-11.7223
mirabil	-11.7226
loquente	-11.7228
gabriel	-11.7232
tabernaculum	-11.7232
reddere	-11.7238
prosecut	-11.7239
largest	-11.724
census	-11.7241
ippoy	-11.7242
modest	-11.7244
decimo	-11.7249
docet	-11.7252
retreat	-11.7252
renew	-11.7253
conscious	-11.7254
probare	-11.7254
profan	-11.7255
inscription	-11.7257
vultus	-11.7258
legitima	-11.7258
norma	-11.726
communica	-11.7261
justified	-11.7266
typical	-11.7267
circumcised	-11.7276
abund	-11.7276
somno	-11.728
sororem	-11.728
century	-11.7283
habui	-11.7284
saturday	-11.7286
litig	-11.7287
testing	-11.7287
anybody	-11.729
catholica	-11.7293
probabili	-11.7293
brac	-11.7294
thirst	-11.7296
romanum	-11.73
liquid	-11.7301
polemioys	-11.7301
libano	-11.7301
lepid	-11.7308
laudantium	-11.7309
gallic	-11.7312
singer	-11.7313
talked	-11.7317
swallow	-11.7317
array	-11.7324
sinu	-11.7325
potero	-11.7327
celebration	-11.7328
sequere	-11.7328
linen	-11.7333
condiciones	-11.7335
fortitudine	-11.7335
behalf	-11.7336
illuc	-11.7336
discussion	-11.7337
cries	-11.7338
fideles	-11.7345
mankind	-11.7345
chris	-11.7347
commerc	-11.7347
gyr	-11.7354
returning	-11.7355
saxon	-11.7357
positus	-11.7362
basic	-11.7364
mortuos	-11.7371
opposition	-11.7372
exempli	-11.7373
bonis	-11.7374
nullum	-11.7378
painful	-11.7378
profectus	-11.7386
sculpt	-11.7386
conversion	-11.7392
steve	-11.7394
capitol	-11.7395
magnifica	-11.7396
lucem	-11.7399
hunger	-11.74
audacia	-11.7407
suus	-11.741
dissipa	-11.7411
prosuen	-11.7415
workers	-11.7418
solar	-11.7425
minuta	-11.7427
wrought	-11.7428
didici	-11.743
league	-11.7431
conscience	-11.7436
accidental	-11.7437
rope	-11.7437
cigarettes	-11.7444
weigh	-11.7444
nuntio	-11.7445
scientiam	-11.7447
dedisti	-11.7451
hotel	-11.7455
flex	-11.7459
impio	-11.7464
define	-11.7468
judicium	-11.7469
tested	-11.7471
superficie	-11.7473
persians	-11.7481
narrow	-11.7482
ancestors	-11.7482
classes	-11.7483
oblivisc	-11.7485
tristis	-11.7489
patribus	-11.749
flumen	-11.749
citizen	-11.7491
basilevs	-11.7491
dixerat	-11.7491
quantitate	-11.7491
cognoverunt	-11.7492
update	-11.7495
disagree	-11.7497
watched	-11.75
papi	-11.7501
constantly	-11.7505
raw	-11.7507
decembris	-11.7512
forgot	-11.7513
pretium	-11.7517
crucifix	-11.7517
quantity	-11.7518
ambassador	-11.7519
attendite	-11.7519
pulchri	-11.752
servorum	-11.7528
occidentem	-11.7529
illyri	-11.753
bility	-11.7533
split	-11.7533
ibn	-11.7533
dispon	-11.7534
hanan	-11.7535
amicum	-11.7537
joab	-11.7538
tiberi	-11.7541
virtutis	-11.7543
synagogue	-11.7545
virtual	-11.7545
opinio	-11.7545
anywhere	-11.755
phyl	-11.7552
reputation	-11.756
tick	-11.7562
urged	-11.7568
hercules	-11.7569
excussi	-11.7571
tabernaculi	-11.7572
planted	-11.7572
quamdiu	-11.7574
mnhs	-11.7575
lumb	-11.758
extremely	-11.758
muslim	-11.7581
torrent	-11.7584
lego	-11.7585
entirely	-11.7589
career	-11.7589
acting	-11.7592
assistance	-11.7593
appropinqu	-11.7597
latitudin	-11.7598
nasci	-11.7599
respice	-11.76
cerv	-11.76
hopefully	-11.76
claimed	-11.7601
delectat	-11.7603
sensit	-11.7605
adiutor	-11.7606
exhort	-11.7606
assert	-11.7615
tertium	-11.762
fertur	-11.7626
gratitude	-11.7628
parties	-11.7629
puniri	-11.763
habitation	-11.7631
peperit	-11.7632
centurion	-11.7632
straton	-11.7634
iudaeorum	-11.764
topic	-11.7648
plebe	-11.7649
reap	-11.7651
opening	-11.7651
forbid	-11.7652
breve	-11.7661
pany	-11.7662
mandatum	-11.767
properly	-11.7671
exceedingly	-11.7671
incredible	-11.7672
pietat	-11.7675
iustum	-11.7675
receiving	-11.7676
companies	-11.7676
amazon	-11.7677
sacerdotum	-11.7678
pattern	-11.768
captivity	-11.7682
stretched	-11.7689
wax	-11.7697
glob	-11.7697
resurrectionis	-11.7698
barbarians	-11.7701
masculi	-11.7703
fugere	-11.7704
prey	-11.7712
sfisi	-11.7713
adoption	-11.772
quietly	-11.772
substantial	-11.7722
septembris	-11.7725
attic	-11.7726
depth	-11.7726
embrace	-11.7731
singulos	-11.7731
micro	-11.7733
consequens	-11.7735
venimus	-11.7736
exercitum	-11.7748
ignorance	-11.775
campaign	-11.775
fung	-11.7754
trax	-11.7755
poison	-11.7756
perpetuo	-11.7757
caeci	-11.7758
corum	-11.7765
crevit	-11.7769
testis	-11.7772
congregati	-11.7773
nykt	-11.7775
mud	-11.7778
odoy	-11.7778
oculo	-11.7782
litteris	-11.7784
liturgic	-11.7785
tivo	-11.7786
decipi	-11.7787
fratribus	-11.7787
somehow	-11.7791
assembl	-11.7792
robber	-11.7793
matutina	-11.7793
exclude	-11.7795
prodest	-11.7797
helpful	-11.7798
vida	-11.7799
ualassh	-11.7801
auditor	-11.7805
fum	-11.7806
pariet	-11.7806
fructu	-11.7807
hearken	-11.7808
launch	-11.7808
carbon	-11.7809
memorial	-11.7809
literature	-11.781
hrakle	-11.7811
stetit	-11.7813
saving	-11.7813
meanwhile	-11.7818
divisi	-11.7822
afterward	-11.7824
purple	-11.7828
obliqu	-11.7828
respondeo	-11.783
lakedaimonivn	-11.7831
collection	-11.7831
satisfaction	-11.7842
oboedi	-11.7843
scientist	-11.7844
videbunt	-11.7846
ahaz	-11.7847
install	-11.7852
execute	-11.7853
liar	-11.7853
flowing	-11.7854
jug	-11.7856
tiger	-11.7857
altogether	-11.7858
montium	-11.7858
auhnaivn	-11.786
register	-11.786
promotion	-11.7862
comite	-11.7863
omvs	-11.7864
fortitudo	-11.7867
begotten	-11.7868
perdidit	-11.7869
leuc	-11.787
raeda	-11.787
facias	-11.7872
germanic	-11.7874
satisfy	-11.7876
permission	-11.7883
korinu	-11.7886
necessitatem	-11.7888
crew	-11.7889
duobus	-11.789
habeant	-11.7892
independence	-11.7893
comb	-11.7893
atlanta	-11.7893
directed	-11.7895
baptist	-11.7895
xrv	-11.7899
circuit	-11.7899
licentia	-11.7901
ruth	-11.7903
disaster	-11.7908
ducunt	-11.7909
stantes	-11.7911
shirt	-11.7911
egestate	-11.7912
reconciliation	-11.7914
imperial	-11.7917
subsid	-11.7918
compr	-11.7918
cuiquam	-11.7919
nyktos	-11.7921
filiam	-11.7921
unitas	-11.7921
abner	-11.7922
voluptatum	-11.7922
construction	-11.7922
peregrina	-11.7923
happiness	-11.7928
manducare	-11.7934
jurat	-11.7942
orbem	-11.7942
entertain	-11.7945
torn	-11.7948
pedibus	-11.7948
ceterum	-11.7951
thither	-11.7952
formula	-11.7952
makedon	-11.7954
fumant	-11.7959
essentiam	-11.796
somewhere	-11.7968
singuli	-11.7969
carefully	-11.7971
bestow	-11.7972
haha	-11.7972
achieve	-11.7973
users	-11.7974
congratulations	-11.7977
category	-11.7977
ordinance	-11.7978
animum	-11.7978
philisthim	-11.7978
faster	-11.7979
fiunt	-11.7981
dialect	-11.7981
obligat	-11.7983
mulierem	-11.7992
explore	-11.7996
litera	-11.8002
vidua	-11.8004
discipulos	-11.8005
transire	-11.8005
galilaea	-11.8005
convict	-11.8006
ligna	-11.8008
munition	-11.8011
sperant	-11.8014
concerned	-11.8021
audiunt	-11.8022
boil	-11.8024
industry	-11.8027
felices	-11.8033
resident	-11.8035
bethel	-11.8037
ipped	-11.8039
stefan	-11.8039
namely	-11.8041
sensum	-11.8041
opoy	-11.8047
persian	-11.8047
proclaim	-11.8049
poteris	-11.805
layer	-11.8052
practical	-11.8052
temporal	-11.8054
australian	-11.8054
nick	-11.8055
editio	-11.806
scribo	-11.8061
ambigu	-11.8063
alpes	-11.8064
sanctorum	-11.8072
irg	-11.8074
tenui	-11.8076
agricultura	-11.8077
ruc	-11.808
falling	-11.808
compell	-11.8083
lamentation	-11.8083
hungry	-11.8083
pollh	-11.8085
flower	-11.8086
categoria	-11.8088
examina	-11.8091
potuerunt	-11.8092
eipein	-11.8096
charles	-11.8096
crudeli	-11.8097
apunto	-11.8098
advisor	-11.8098
raro	-11.8099
praecipue	-11.8099
pluto	-11.8102
eixen	-11.8103
lug	-11.8105
allhloys	-11.8109
boston	-11.811
mellon	-11.811
elizabeth	-11.8116
chrys	-11.8117
principibus	-11.8118
trinity	-11.812
sanguinis	-11.8122
undique	-11.8122
fauna	-11.8124
vocatus	-11.8135
poioyn	-11.8138
soldier	-11.8138
garrison	-11.8139
congru	-11.8145
vivifica	-11.8145
paradise	-11.8146
kaloymeno	-11.8154
studia	-11.8157
distinguished	-11.8158
elementum	-11.8162
guinea	-11.8166
ducti	-11.8168
supplication	-11.817
obviously	-11.8172
warned	-11.8173
attain	-11.8174
quindecim	-11.8174
dolo	-11.8175
alpha	-11.8176
humility	-11.8178
putant	-11.8179
brook	-11.818
adopted	-11.8181
drawing	-11.8184
opoi	-11.8186
fecerat	-11.8186
cic	-11.8187
repeated	-11.8189
avail	-11.8198
noticed	-11.8198
excited	-11.82
lazarus	-11.8202
universitatis	-11.8202
chanaan	-11.8202
occidentali	-11.8203
morti	-11.8203
henry	-11.8203
changing	-11.8204
foederata	-11.8204
decline	-11.8206
listened	-11.8206
mortuo	-11.8207
responded	-11.8208
antoni	-11.8209
necessarily	-11.8209
tenere	-11.8211
knock	-11.8215
exercit	-11.8216
samson	-11.8216
kaz	-11.8219
crap	-11.8221
intellige	-11.8226
eneka	-11.8227
policy	-11.8228
praeceperat	-11.823
agitur	-11.823
dubitaverit	-11.8231
sentiunt	-11.8233
patriarch	-11.8233
periculosum	-11.8237
handle	-11.8238
disappointed	-11.8239
minute	-11.824
triste	-11.8242
promote	-11.8242
descendere	-11.8242
oleo	-11.8248
oymenos	-11.825
invidiam	-11.825
examine	-11.8252
commuta	-11.8253
peculiar	-11.8257
laughing	-11.8258
ascension	-11.8258
jehovah	-11.8258
praefectus	-11.826
municipal	-11.8262
wheat	-11.8263
servient	-11.8268
correction	-11.8269
sack	-11.8271
exclusi	-11.8274
statutes	-11.8275
redim	-11.8283
habitare	-11.8285
intelligent	-11.8291
weeping	-11.8292
vivimus	-11.8294
tabul	-11.8297
sunday	-11.8297
increment	-11.8297
pasan	-11.8298
rival	-11.8299
sabin	-11.8304
defined	-11.8308
nikhs	-11.831
crucified	-11.8311
kvly	-11.8314
envy	-11.8315
finibus	-11.8315
currere	-11.8316
sovietica	-11.8316
tinos	-11.8318
poseidon	-11.8322
achaeans	-11.8327
rogavi	-11.8329
rursus	-11.833
insert	-11.8332
proclaimed	-11.8332
marched	-11.8333
ethiopia	-11.8334
quadri	-11.8335
eirhnh	-11.8336
uncertain	-11.8341
negare	-11.8342
obsid	-11.8349
diversity	-11.8351
treaty	-11.8351
killing	-11.8354
dispens	-11.8356
becoming	-11.8361
crescere	-11.8361
virga	-11.8363
cornelius	-11.8367
religiosa	-11.8372
principem	-11.8374
sigh	-11.8375
chaos	-11.8376
megalh	-11.8379
cognosci	-11.838
rationibus	-11.8383
empti	-11.8389
moneta	-11.839
grateful	-11.8391
amyn	-11.8396
voluptatibus	-11.8401
verbi	-11.8405
veniens	-11.8409
docuit	-11.8411
combat	-11.8414
veritati	-11.8416
dimisit	-11.8419
rico	-11.8422
adventure	-11.8428
analog	-11.8429
transgredi	-11.8431
misso	-11.8435
foederis	-11.8437
rix	-11.844
fundamental	-11.844
multitudinem	-11.8445
visionem	-11.845
quemadmodum	-11.8452
teroys	-11.8452
refriger	-11.8456
intelligence	-11.8458
recessit	-11.8465
despot	-11.8466
eagle	-11.8482
alexandr	-11.8484
alliance	-11.8489
burst	-11.8489
rursum	-11.849
superbia	-11.8493
tyrant	-11.8494
cleric	-11.8495
christianity	-11.8495
technic	-11.8497
provision	-11.85
goats	-11.8504
dispos	-11.8509
encamped	-11.8512
atting	-11.8515
inimicus	-11.8515
crimina	-11.8515
exhaust	-11.8516
conceived	-11.8518
manasseh	-11.8518
roar	-11.8519
comput	-11.8521
efficaci	-11.8522
agesilaus	-11.8527
praesens	-11.8528
plhuos	-11.8531
repraesenta	-11.8531
perhibe	-11.8532
reperire	-11.8538
romulus	-11.854
phl	-11.8543
breadth	-11.8544
recordatus	-11.8547
atlantic	-11.8548
nazar	-11.8549
swimming	-11.8549
barb	-11.8552
oleum	-11.8552
fitting	-11.8553
cassius	-11.8554
imagination	-11.8563
bob	-11.8564
admitted	-11.8564
eccles	-11.8567
mauh	-11.857
accurate	-11.8577
pursuit	-11.8581
oymenoi	-11.8582
smooth	-11.8586
condicione	-11.8587
potio	-11.8593
administra	-11.8594
psalmo	-11.8594
staying	-11.8595
connected	-11.8597
void	-11.8598
savage	-11.8599
iniquitas	-11.8605
laughed	-11.8607
cornu	-11.8609
divinum	-11.8609
legant	-11.861
egyptian	-11.862
founder	-11.8622
omeua	-11.8623
followers	-11.8623
odorus	-11.8623
custos	-11.8624
recall	-11.8625
hostile	-11.8626
contemplat	-11.8629
opinionem	-11.8634
summoned	-11.8636
benedictus	-11.8637
pictura	-11.8638
sacerdote	-11.8638
apparet	-11.8639
secutus	-11.8639
quotiens	-11.8641
plurimi	-11.8642
argento	-11.8644
existent	-11.8644
peccavi	-11.8648
tempta	-11.8658
intellectu	-11.8659
impedi	-11.866
tyxh	-11.8661
activity	-11.8663
creditor	-11.8665
ugly	-11.8665
magical	-11.8673
celebrated	-11.8674
auctoritate	-11.8678
constituta	-11.8683
deser	-11.8683
pacto	-11.8685
dojan	-11.8688
marked	-11.8689
succeeded	-11.869
sollicitudin	-11.8692
studies	-11.8697
remission	-11.8698
generationem	-11.8698
juro	-11.8699
competition	-11.8703
cousin	-11.8705
troph	-11.8706
marry	-11.8707
voluerit	-11.8712
argos	-11.8714
graduate	-11.8714
faciens	-11.872
altitudine	-11.8721
trojan	-11.8721
pretend	-11.8722
ullo	-11.8722
hurry	-11.8723
diploma	-11.8724
actionem	-11.8729
arxh	-11.8734
potui	-11.8734
navem	-11.8734
effectum	-11.8734
israelites	-11.8737
evolution	-11.874
signal	-11.8743
redire	-11.8746
ulli	-11.8747
kalvs	-11.8751
peccati	-11.8751
militari	-11.8754
communionem	-11.8757
dragon	-11.8759
lacrima	-11.876
target	-11.8764
fever	-11.8764
despite	-11.8768
contrast	-11.8769
objection	-11.8775
ordina	-11.8776
libertate	-11.8778
holocaustum	-11.878
vocavi	-11.878
whither	-11.8781
pursued	-11.8782
comedit	-11.8793
finiti	-11.8793
liceat	-11.8796
pyu	-11.8801
aeternam	-11.8804
persuaded	-11.8807
metro	-11.8811
begat	-11.8813
ellhnvn	-11.8815
wy	-11.8817
feceris	-11.8818
determine	-11.882
odysseus	-11.8823
morietur	-11.8827
plorat	-11.883
heavenly	-11.8832
fantastic	-11.8837
recupera	-11.8841
hereditatem	-11.8842
subiectum	-11.8844
redemption	-11.8844
sixty	-11.8844
rebuke	-11.8847
shift	-11.8857
compared	-11.8861
bark	-11.8862
deikny	-11.8866
generatio	-11.8871
shoes	-11.8873
discipula	-11.8874
ignorare	-11.8874
hezekiah	-11.8875
anyway	-11.8879
raven	-11.8886
fratri	-11.8886
anxious	-11.8889
creare	-11.8891
keleye	-11.8893
ippus	-11.8893
iulii	-11.8893
cedar	-11.8894
ceperunt	-11.8895
football	-11.8902
testimonii	-11.8903
mitto	-11.8904
spica	-11.8904
composed	-11.8908
transgressus	-11.8909
limited	-11.891
investiga	-11.8913
septima	-11.8913
formerly	-11.8917
visio	-11.8918
backward	-11.8928
pug	-11.893
penta	-11.8931
carcerem	-11.8933
benediction	-11.8934
insurance	-11.8934
prandium	-11.8935
avenge	-11.8935
aperuit	-11.8938
creatum	-11.894
sequeris	-11.8942
doom	-11.8943
indigen	-11.8944
victu	-11.8951
swim	-11.8954
ceperit	-11.8954
dirige	-11.8957
verint	-11.8957
exitus	-11.8959
arcam	-11.896
branches	-11.896
larth	-11.896
oculus	-11.8961
yah	-11.8961
profess	-11.8962
publius	-11.8963
adulescent	-11.8963
surgens	-11.8963
altissimi	-11.8965
vestimentum	-11.8966
daddy	-11.8966
extrema	-11.8966
planning	-11.8966
pulchre	-11.8969
secretary	-11.897
miserable	-11.8972
intellexi	-11.8973
recita	-11.8976
descendants	-11.899
fugitiv	-11.8992
malitia	-11.8992
custodiam	-11.8995
petitio	-11.8995
stipendia	-11.8995
quaerendam	-11.8996
concilium	-11.8996
demanded	-11.8996
terminum	-11.8997
studium	-11.9001
causis	-11.9003
andrea	-11.9003
compass	-11.9003
guests	-11.9009
regimen	-11.9012
arcadians	-11.9012
sinai	-11.9014
bvm	-11.9017
warrior	-11.9022
summit	-11.9025
consistent	-11.9027
confusing	-11.9028
palam	-11.9029
officially	-11.9032
reliquo	-11.9039
eleven	-11.9042
bitch	-11.9042
definitio	-11.9045
interview	-11.9046
necessari	-11.9048
gravida	-11.905
thesauros	-11.9057
eleazar	-11.9058
withdraw	-11.9059
legvn	-11.9062
apparently	-11.9063
openly	-11.9066
machina	-11.9066
recorded	-11.9069
facio	-11.9069
exchange	-11.9072
transform	-11.9077
stomach	-11.9079
peccare	-11.9081
quamvis	-11.9085
pharma	-11.9085
coeperunt	-11.9086
structura	-11.9087
alki	-11.9087
nesciebam	-11.9088
resolved	-11.9092
putavi	-11.9093
variation	-11.9103
retain	-11.9103
alexandria	-11.9106
iraq	-11.9107
possibility	-11.9107
construct	-11.9107
begged	-11.9107
senex	-11.9114
castle	-11.9115
ezra	-11.9116
sheba	-11.9117
credimus	-11.9122
scruta	-11.9122
diligentia	-11.9124
eyry	-11.9129
gaudeo	-11.913
stephan	-11.913
oderunt	-11.913
legitur	-11.9135
anagkh	-11.9138
stades	-11.9139
suitable	-11.9143
agni	-11.915
lovers	-11.9154
painting	-11.9157
decreta	-11.9158
obligation	-11.9159
inferi	-11.9163
plenum	-11.9167
persequen	-11.917
yoke	-11.9175
potuisse	-11.9178
circiter	-11.9179
preparation	-11.918
expensive	-11.918
behavior	-11.9181
environment	-11.9181
fatig	-11.9181
condicio	-11.9184
fortior	-11.9186
lectum	-11.9189
basilea	-11.9192
sylla	-11.9193
plhn	-11.9199
utero	-11.9203
credider	-11.9206
journal	-11.9211
monstrare	-11.9213
evangeliz	-11.9213
airport	-11.9214
salvum	-11.9215
cock	-11.9216
augment	-11.9217
utraque	-11.9219
mittitur	-11.9225
compelled	-11.9238
basket	-11.9239
oooo	-11.924
partibus	-11.9242
coepi	-11.9244
regionem	-11.9247
recipe	-11.9248
unitate	-11.9249
donald	-11.9249
administrativ	-11.9251
russi	-11.9253
intellectum	-11.9258
disperd	-11.9263
tempted	-11.9264
obama	-11.9266
performance	-11.9268
invented	-11.927
abandon	-11.9274
properties	-11.9274
provoke	-11.9274
convention	-11.9274
pontifici	-11.9275
certus	-11.9276
episode	-11.9276
flash	-11.9278
cibum	-11.9279
plica	-11.928
francogall	-11.928
senatu	-11.9282
oxen	-11.9285
accord	-11.9286
weapon	-11.9286
billion	-11.9289
annuntia	-11.929
freely	-11.9294
engaged	-11.9295
profecit	-11.93
nail	-11.9301
futuri	-11.9303
animadvert	-11.9303
profession	-11.9304
whisper	-11.9305
occidit	-11.9305
philadelphia	-11.9306
etiquette	-11.9307
episcopi	-11.9307
bernard	-11.9308
consecuti	-11.9314
julian	-11.9316
auribus	-11.9318
chemical	-11.9323
furnish	-11.9327
mutual	-11.9327
yard	-11.9331
stress	-11.9332
doubtful	-11.9333
buck	-11.9333
beau	-11.9337
sanctissimo	-11.9338
limina	-11.9338
desertum	-11.9346
ionathan	-11.9348
cibi	-11.9354
efficitur	-11.9354
nadab	-11.9354
bowl	-11.9356
eighth	-11.9356
iraquia	-11.9358
apparent	-11.9359
growth	-11.9361
assigned	-11.9361
desperate	-11.9362
dudum	-11.9363
damnat	-11.9366
sponsor	-11.9366
introitu	-11.9367
occasio	-11.9369
fiction	-11.9369
voluntary	-11.9371
balaam	-11.9373
cogniti	-11.9374
download	-11.9375
screen	-11.9376
tight	-11.9379
rash	-11.9389
jealous	-11.9392
marco	-11.9392
translated	-11.9399
ferunt	-11.9402
philosophus	-11.9402
iordanem	-11.9402
udini	-11.9405
zel	-11.9406
regret	-11.9415
panic	-11.9419
contentus	-11.9428
develop	-11.9429
warrant	-11.9431
perfectionem	-11.9434
biggest	-11.9435
difficultatem	-11.9435
pauca	-11.9437
veil	-11.9446
slowly	-11.9454
likeness	-11.9455
repetition	-11.9455
processus	-11.9458
aspect	-11.9458
climb	-11.9462
inspiration	-11.9462
divitias	-11.9467
celeriter	-11.9467
fornication	-11.9467
sports	-11.9469
disterminat	-11.947
oblation	-11.9475
graece	-11.9485
fruitful	-11.9489
xvrion	-11.949
magnificent	-11.9491
liberation	-11.9495
separation	-11.9496
diligere	-11.9498
samuhel	-11.9499
laicis	-11.95
disgrace	-11.9503
obeyed	-11.9504
madness	-11.9512
patros	-11.9518
synod	-11.9519
injury	-11.952
termini	-11.952
honourable	-11.9525
formida	-11.9526
proximum	-11.9529
ebdomada	-11.953
hieremia	-11.9531
aliquet	-11.9532
volent	-11.9533
flies	-11.9534
gilead	-11.9534
conveniens	-11.9536
uir	-11.9536
sagitta	-11.9536
habebant	-11.9542
transgressos	-11.9547
weary	-11.9548
assembled	-11.955
ludus	-11.955
ippeas	-11.955
codice	-11.9553
priam	-11.9554
polemv	-11.9558
infantry	-11.9558
associated	-11.9564
winning	-11.9564
potens	-11.9566
concord	-11.9577
requiesc	-11.9579
prav	-11.9581
nempe	-11.9581
paz	-11.9582
societatem	-11.9583
encounter	-11.9583
suspicious	-11.9585
simeon	-11.9586
oyntos	-11.9586
interrogati	-11.9591
ruina	-11.9591
legoysi	-11.9594
guil	-11.9595
redeemed	-11.9595
brazil	-11.9595
remnant	-11.9596
gracious	-11.9596
manuel	-11.9599
dubium	-11.9601
improve	-11.9604
branch	-11.9605
praesentia	-11.9605
jewish	-11.9607
morbo	-11.9612
anniba	-11.9612
mortuum	-11.9615
regional	-11.9616
omhr	-11.9618
arctic	-11.9622
alejandr	-11.9622
britannica	-11.9624
prorsus	-11.9626
haesitare	-11.9627
pub	-11.9633
revertere	-11.9638
deliberat	-11.964
securi	-11.9646
perished	-11.9648
china	-11.9654
hostia	-11.9656
management	-11.9658
desiderium	-11.966
involve	-11.966
meridionali	-11.9661
reliquerunt	-11.9661
ambulance	-11.9662
pessima	-11.9663
visual	-11.9667
glori	-11.9668
glossa	-11.9669
abyss	-11.9675
comrades	-11.9677
glorios	-11.9679
frequenter	-11.9682
concessi	-11.9684
fratre	-11.9689
mithridates	-11.9691
illorum	-11.9692
coniung	-11.9694
deficient	-11.9695
caf	-11.9698
partial	-11.9699
alarm	-11.9699
robot	-11.97
disappear	-11.9704
nuper	-11.9706
obvious	-11.9707
habebit	-11.9707
humanity	-11.971
theft	-11.9711
vengeance	-11.9712
perfectio	-11.9713
incipias	-11.9714
anax	-11.9714
protected	-11.9717
exaudivit	-11.9719
disputat	-11.972
humanitat	-11.972
terminus	-11.9721
secretly	-11.9721
weakness	-11.9728
quattuordecim	-11.9729
faithfulness	-11.9733
roger	-11.9734
pledge	-11.9734
quantitas	-11.9735
nobel	-11.9736
attached	-11.9737
dicendo	-11.9738
exposed	-11.9747
basiley	-11.9752
expense	-11.9754
langu	-11.9754
trader	-11.9761
relief	-11.9761
egenonto	-11.9767
laden	-11.9779
bamus	-11.9782
aghsila	-11.9783
yphr	-11.9785
thrust	-11.9788
energia	-11.9794
odium	-11.9794
hiero	-11.9796
oblivisci	-11.9799
breathing	-11.98
baptizat	-11.9805
clip	-11.9806
despair	-11.9809
tempt	-11.9813
pergam	-11.9813
corporal	-11.9814
nosti	-11.9817
argives	-11.9819
lapidem	-11.9821
beneficio	-11.9824
responsibility	-11.9825
laetitia	-11.9825
aiunt	-11.9828
precept	-11.983
clay	-11.9832
argentina	-11.9832
philippus	-11.9841
approved	-11.9846
stroke	-11.9846
lofty	-11.9854
exhibit	-11.9855
fourteen	-11.9855
borrow	-11.9859
dirty	-11.9862
ordained	-11.9867
municip	-11.987
kick	-11.9873
antonius	-11.9877
doki	-11.9877
dignitate	-11.988
bottle	-11.9884
moriar	-11.9885
responsible	-11.9886
inhabited	-11.9886
secuta	-11.9889
hinder	-11.9889
breaking	-11.9889
extended	-11.989
pulchrum	-11.9892
scelus	-11.9894
sponsa	-11.9899
bub	-11.9902
bacch	-11.9904
lambanei	-11.9908
worm	-11.991
moritur	-11.9917
kefalh	-11.992
coniecturam	-11.9924
scientiarum	-11.9925
buna	-11.9926
identify	-11.9928
conventu	-11.9931
virginia	-11.9942
hmeran	-11.9943
succeed	-11.9943
recommended	-11.995
thirteen	-11.9956
relate	-11.9959
iohannes	-11.9959
obstinationem	-11.996
bethlehem	-11.996
damascus	-11.9961
tumultu	-11.9964
aquila	-11.9965
credibili	-11.9982
participation	-11.9983
comic	-11.9984
hesitate	-11.9987
altero	-11.9991
ducitur	-11.9992
flux	-11.9992
meridiem	-11.9993
ultimum	-11.9994
desolation	-11.9996
vessel	-11.9997
dignus	-11.9998
interrupt	-12.0001
injured	-12.0009
reverse	-12.001
nigh	-12.0011
fiant	-12.0015
omoivs	-12.0019
omnipotent	-12.0022
periculi	-12.0026
maxhn	-12.0026
scandaliz	-12.0026
ridiculum	-12.0026
superb	-12.0027
commercial	-12.0029
hilar	-12.0032
requirit	-12.0032
scort	-12.0034
external	-12.0035
occurred	-12.0035
ydvr	-12.0036
cesar	-12.0036
proposed	-12.005
ensium	-12.005
tosoyto	-12.0051
operatio	-12.0057
harp	-12.0058
clothed	-12.0059
atonement	-12.006
novissimo	-12.0061
genuflexione	-12.0061
monarch	-12.0071
surrexer	-12.0072
temperat	-12.008
suscepi	-12.0083
epoihsen	-12.0084
preaching	-12.0087
visibile	-12.0089
constitutional	-12.0089
rectum	-12.009
uesuai	-12.0092
stabat	-12.0097
architectura	-12.0098
fasting	-12.0099
bookmark	-12.0103
venissent	-12.0103
cherub	-12.0103
personally	-12.0109
invitat	-12.0111
merchant	-12.0117
poliork	-12.0125
satura	-12.0127
laying	-12.0128
cyxh	-12.0131
mexico	-12.0133
svthr	-12.0133
gaius	-12.0135
opposita	-12.0136
pill	-12.014
seated	-12.0143
chill	-12.0145
filoys	-12.0148
uerint	-12.0152
devotion	-12.0153
hanging	-12.0156
prvtos	-12.0158
levavi	-12.0158
trespass	-12.0159
spolia	-12.0162
contempl	-12.0163
octavo	-12.0163
majesty	-12.0164
gaudium	-12.0164
magia	-12.0173
scripsisti	-12.0174
vanity	-12.0175
regio	-12.018
disorder	-12.018
frequently	-12.0184
sumpsi	-12.0186
disser	-12.019
ruben	-12.019
ivity	-12.0192
nuda	-12.0192
worried	-12.0193
appreciate	-12.0194
infirmitat	-12.0194
ambulant	-12.0196
quatuor	-12.0201
sensitive	-12.0201
steel	-12.0204
thirsty	-12.0209
graeco	-12.0211
docere	-12.0211
rebel	-12.0213
mish	-12.0214
betrayed	-12.0218
devoted	-12.0221
procession	-12.0222
iciam	-12.0228
universum	-12.023
toiayta	-12.0231
astronomi	-12.0234
artifici	-12.0235
resolve	-12.0236
victorious	-12.0236
global	-12.0237
olympi	-12.0239
pvl	-12.0242
upward	-12.0243
existing	-12.0252
conclusio	-12.0254
oportere	-12.0259
ihel	-12.0262
ethnic	-12.0263
desiderio	-12.0267
sweden	-12.027
particularly	-12.0273
britanniarum	-12.028
grab	-12.0282
concilia	-12.0288
infirmi	-12.0294
aaaa	-12.0297
hub	-12.0298
penalty	-12.0299
caution	-12.0299
oporteat	-12.0301
financial	-12.0303
creatus	-12.0303
debitum	-12.0303
laetetur	-12.0304
episcopo	-12.0304
heritage	-12.0304
dubitabam	-12.0305
stipula	-12.0308
pertinaciam	-12.0309
optimi	-12.0315
gorg	-12.0315
wholly	-12.0316
fabius	-12.0318
originally	-12.0325
rector	-12.0331
taxy	-12.0335
concordia	-12.0335
enlighten	-12.0336
achilles	-12.0336
ademptum	-12.0337
greatness	-12.0338
tanquam	-12.0338
augustinus	-12.034
suburbs	-12.0342
longius	-12.0348
lucrum	-12.0352
label	-12.0355
posuisti	-12.0355
confessus	-12.0356
comparatio	-12.0359
linguistic	-12.0359
genomenhs	-12.0361
boeotia	-12.0361
sciens	-12.0369
nuntiavit	-12.0371
irrita	-12.0372
astray	-12.0374
carmel	-12.0375
amba	-12.0378
carolus	-12.0381
sempre	-12.0382
consequat	-12.0388
lieutenant	-12.0394
hgage	-12.0397
herald	-12.0399
doynai	-12.0405
scripserit	-12.0407
approximately	-12.0407
consciousness	-12.0408
steadfast	-12.0417
uoc	-12.0419
vidimus	-12.0429
reversi	-12.0431
rvmhn	-12.0434
mnhma	-12.0438
constructed	-12.0439
fountain	-12.0441
parlamentum	-12.0443
accidens	-12.0444
sabbatum	-12.0444
slid	-12.0444
furthermore	-12.0448
snake	-12.0452
dormiunt	-12.0457
contrist	-12.0466
bble	-12.0466
generous	-12.0467
cohort	-12.0472
patitur	-12.0473
mutua	-12.0477
diaboli	-12.0479
coniu	-12.0481
guidance	-12.0481
sqb	-12.0483
lonely	-12.0484
qualecumque	-12.0485
stumble	-12.0487
bug	-12.0487
judicia	-12.0487
xvrh	-12.0488
londini	-12.0488
centesima	-12.0489
vota	-12.0495
medicament	-12.0499
defeat	-12.0501
dilectus	-12.051
praesumentibus	-12.0514
kauar	-12.0515
electronic	-12.0515
faterentur	-12.0516
decessit	-12.0516
preached	-12.0517
suecia	-12.0523
flexibilem	-12.0527
dialog	-12.0527
acceptable	-12.053
plumb	-12.0533
visti	-12.0533
audierit	-12.0538
cyprus	-12.0539
preces	-12.0542
inspect	-12.0544
magazine	-12.0546
pollakis	-12.0547
revolt	-12.0548
wolves	-12.055
mercedem	-12.055
succession	-12.0551
dignum	-12.0555
quiescere	-12.0564
fatal	-12.0567
distinguish	-12.0579
incredibile	-12.0583
turkey	-12.0584
discessit	-12.0585
worshipped	-12.0587
lodge	-12.0588
suscip	-12.059
subter	-12.0591
xix	-12.0599
gladium	-12.06
promov	-12.0601
blast	-12.0602
supplies	-12.0603
triple	-12.0606
recipere	-12.0614
groan	-12.0614
litter	-12.0614
grievous	-12.0616
neminem	-12.0619
evangelium	-12.0622
capacity	-12.0622
eventually	-12.0625
franciscus	-12.0625
wail	-12.0631
creating	-12.0632
glorify	-12.0632
aenean	-12.0646
jul	-12.0646
seneca	-12.0647
reconcilia	-12.065
corru	-12.065
aegrot	-12.065
fieret	-12.0655
unexpected	-12.0655
asaph	-12.0657
tremble	-12.0658
julia	-12.0658
exsult	-12.0659
consequentia	-12.066
splendor	-12.0666
prosperity	-12.0666
immer	-12.0667
jail	-12.0668
frost	-12.0671
tendunt	-12.0673
equally	-12.0684
recently	-12.0685
chronic	-12.0687
vulnerati	-12.0691
perpetuum	-12.0693
envious	-12.0693
noluit	-12.0694
relevant	-12.0694
jenofvn	-12.0695
opportunities	-12.0696
universitas	-12.0703
curious	-12.0706
conversus	-12.0709
inflict	-12.0721
nocturna	-12.0726
individu	-12.0727
agauon	-12.0727
kap	-12.0728
confirmation	-12.0729
excutiat	-12.073
tabernaculo	-12.0731
obsecro	-12.0731
fake	-12.0731
mercator	-12.0733
palestin	-12.0734
cherubim	-12.0735
contrarium	-12.0735
tegea	-12.0736
praecepto	-12.0737
reasonable	-12.0742
sealed	-12.0748
dimitti	-12.075
violentia	-12.0759
engagement	-12.076
valuable	-12.0761
destination	-12.0766
demonstration	-12.0767
lutetiae	-12.0767
stephen	-12.0769
tulisse	-12.0769
yellow	-12.0771
saecula	-12.0777
developed	-12.0777
graeca	-12.0787
ridge	-12.0789
ambulare	-12.08
repudi	-12.0804
diabolo	-12.0804
loquebatur	-12.0804
videndum	-12.0806
elisha	-12.0812
dimidia	-12.0818
nazareth	-12.0818
offspring	-12.0829
arcadia	-12.0831
scatter	-12.0834
humor	-12.0837
prudence	-12.0838
perspic	-12.0838
midnight	-12.0839
creep	-12.084
consequenter	-12.0842
denuo	-12.0843
strife	-12.0843
abierunt	-12.0856
ulcer	-12.0862
perpetual	-12.0864
consequently	-12.0868
grandfather	-12.087
belly	-12.0877
asshole	-12.088
infection	-12.0885
venturus	-12.0887
oblat	-12.09
redirected	-12.0901
mourning	-12.0901
prophetia	-12.0902
ambition	-12.0903
ualassan	-12.0905
forbidden	-12.0907
sovereign	-12.0909
console	-12.091
infinitum	-12.0914
currency	-12.0914
morbi	-12.0915
assyriorum	-12.0917
ypato	-12.0919
diximus	-12.0925
mandavit	-12.0926
athenian	-12.0927
leaf	-12.093
itinere	-12.0931
potamon	-12.0937
insist	-12.094
antiochus	-12.0941
gignvsk	-12.0943
illustrat	-12.0945
boiv	-12.0946
quaestor	-12.0947
verborum	-12.0948
vigilant	-12.095
episcopal	-12.0951
taberna	-12.0952
suburban	-12.0953
dicendi	-12.0955
obscure	-12.0958
sumpta	-12.0959
garment	-12.0961
fvk	-12.0965
jealousy	-12.0965
vultu	-12.0965
templa	-12.0966
occidere	-12.0975
oeconomica	-12.0979
sixteen	-12.0979
mathematics	-12.0989
network	-12.0989
forsitan	-12.099
raising	-12.099
gray	-12.0992
sabbati	-12.0993
stultitia	-12.0996
tutor	-12.0997
musician	-12.0997
ouch	-12.0997
contingent	-12.1005
sodali	-12.101
faciebat	-12.1017
xrhsuai	-12.1018
fist	-12.102
saviour	-12.1023
dynai	-12.1024
paidvn	-12.1026
syracusan	-12.1027
misisti	-12.1028
terribilis	-12.1029
natos	-12.1029
breakfast	-12.1037
certamin	-12.1038
chains	-12.1041
internal	-12.1041
andrew	-12.1042
ducta	-12.1044
samenoi	-12.1045
monitor	-12.1045
sumpti	-12.1046
misericordi	-12.1053
aedificare	-12.1055
pregnant	-12.1062
concilio	-12.1064
afternoon	-12.1064
delebitur	-12.1065
multiplied	-12.1066
epiuym	-12.1067
pessimum	-12.1067
context	-12.1068
pdf	-12.1071
dhlon	-12.1072
ekeinh	-12.1076
spatio	-12.1081
benign	-12.1082
stuck	-12.1085
instrumentum	-12.1087
allhlois	-12.1088
medicamento	-12.1091
helveti	-12.1095
admiral	-12.1099
omenhn	-12.11
recruit	-12.11
nascuntur	-12.1102
sepultus	-12.1102
plata	-12.1103
nascitur	-12.1108
quran	-12.1111
pondus	-12.1113
illusion	-12.1115
lupi	-12.1119
champion	-12.1123
naval	-12.1123
associat	-12.1128
repperi	-12.1129
diligence	-12.1129
xrhmatvn	-12.113
concursu	-12.113
navigation	-12.113
lhu	-12.1132
plhsion	-12.1135
fylatt	-12.1136
sanctified	-12.1141
aeterni	-12.1142
shrine	-12.1145
aeterno	-12.1146
novus	-12.1148
comedy	-12.1148
donkey	-12.1148
azaria	-12.1151
lightning	-12.1153
importance	-12.1158
jeho	-12.1162
navigate	-12.1163
pernici	-12.1167
channel	-12.1169
ioyda	-12.117
dividitur	-12.1174
arrival	-12.1176
activities	-12.1177
subiecti	-12.1177
miliones	-12.1178
farewell	-12.1179
arrangement	-12.1182
diventa	-12.1186
dull	-12.1187
duration	-12.1187
tayt	-12.1196
famul	-12.1201
peiuo	-12.1205
gorgeous	-12.1206
pluribus	-12.121
pharaoni	-12.1211
edvken	-12.1211
venture	-12.1211
necessitudin	-12.1213
julius	-12.1214
praeclara	-12.1215
industrial	-12.1215
comprehensi	-12.1216
clamant	-12.1217
calumnia	-12.1217
antioch	-12.1229
pervert	-12.1233
virorum	-12.1236
mamma	-12.1246
augur	-12.1246
septimo	-12.1255
prostitute	-12.1255
salvi	-12.1257
irasci	-12.1264
dhmoy	-12.1268
filippo	-12.127
dicemus	-12.1272
hollow	-12.1273
stratopedon	-12.1278
fvnh	-12.1279
planned	-12.1288
hunting	-12.1288
horizon	-12.1288
ardent	-12.1291
aurem	-12.1291
democrat	-12.1293
cadaver	-12.1294
protestant	-12.1294
arxvn	-12.1305
similitudinem	-12.1305
lignum	-12.1307
outrage	-12.131
judgement	-12.131
strive	-12.1314
awful	-12.1315
punctu	-12.132
uhbaioi	-12.1322
distingui	-12.1327
qualitas	-12.1333
margin	-12.1337
sustent	-12.1344
saeculi	-12.1354
pluri	-12.1357
alcibiades	-12.1357
tacere	-12.1359
avaritia	-12.1364
credat	-12.1365
iudex	-12.1369
fundamentum	-12.1369
fascicul	-12.1369
apprehend	-12.1371
cubitorum	-12.1376
facienda	-12.1376
addidit	-12.1376
syracuse	-12.1378
costume	-12.1378
longitudine	-12.1378
random	-12.1381
hoping	-12.1381
vehement	-12.1387
tropic	-12.1391
combust	-12.1391
secuti	-12.1392
pirates	-12.1396
teleyths	-12.1403
ministerio	-12.1405
jeroboam	-12.141
pash	-12.1415
modul	-12.1421
orphan	-12.1422
termino	-12.1426
festa	-12.1427
dogma	-12.1429
habitavit	-12.1429
agvg	-12.1438
revenue	-12.1442
obscura	-12.1447
intellego	-12.1447
democracy	-12.1447
basilica	-12.145
distribution	-12.1459
straightway	-12.1477
nicol	-12.1478
supernatural	-12.1479
frigus	-12.1479
civitatum	-12.1482
desist	-12.1485
schedule	-12.1486
gladiator	-12.1486
columbia	-12.1487
hermione	-12.1487
transcend	-12.149
bike	-12.1494
discrimination	-12.1498
hghs	-12.1503
mentiri	-12.1504
punire	-12.1504
trahit	-12.1507
respublica	-12.1508
ferent	-12.1508
prospect	-12.152
traffic	-12.1521
errare	-12.1523
hujus	-12.1523
analysis	-12.1524
salvus	-12.1527
cypri	-12.1528
votum	-12.1529
stulta	-12.1529
acceperunt	-12.1529
tulisti	-12.1531
tranquillo	-12.1531
orientation	-12.1537
fuerim	-12.1539
xviii	-12.154
metellus	-12.1543
phrygia	-12.155
vertice	-12.1554
ignorantia	-12.1555
kitchen	-12.1558
privilege	-12.1559
brilliant	-12.1561
ordination	-12.1563
suspendisse	-12.1567
fygon	-12.1569
dhmon	-12.157
theologica	-12.1578
traduc	-12.1581
debeo	-12.1581
revelat	-12.1582
titulo	-12.1582
megalo	-12.1586
intentio	-12.1593
illegal	-12.1596
administratio	-12.1598
incident	-12.1599
pulcher	-12.16
testimonio	-12.1601
iniquities	-12.1605
judicio	-12.1605
belonging	-12.1606
spatium	-12.1608
torture	-12.1615
dejia	-12.1621
peaceful	-12.1624
deipn	-12.1632
sygk	-12.1638
sooth	-12.1639
failure	-12.1641
boundaries	-12.1642
resistere	-12.1643
pellentesque	-12.1645
concedimus	-12.1645
hebraic	-12.1648
dixerim	-12.1649
firmament	-12.1652
kindled	-12.166
legontes	-12.1661
poihsai	-12.1663
georgius	-12.1663
accordance	-12.1665
fuero	-12.167
bloom	-12.1672
pretiosa	-12.1673
polish	-12.1674
artificial	-12.1674
friday	-12.1675
invasion	-12.1684
kroy	-12.1685
gollapudi	-12.1685
dereliquisti	-12.1686
nequaquam	-12.1686
recedunt	-12.1686
pontifical	-12.1687
gregory	-12.1688
exciting	-12.1691
delectabi	-12.1694
appellavit	-12.1695
luctus	-12.1701
ajiv	-12.1704
coqu	-12.171
nourish	-12.1711
offense	-12.1723
gulielmus	-12.1725
accustomed	-12.1729
gross	-12.1729
certior	-12.1735
apartment	-12.1736
folly	-12.1754
oppido	-12.1762
stratoy	-12.1764
ceciderunt	-12.1766
evangelio	-12.1767
criminis	-12.1773
paravi	-12.1779
impact	-12.1781
publication	-12.1783
aggress	-12.1787
priusquam	-12.1793
winner	-12.1795
peak	-12.1796
accepi	-12.1797
gender	-12.1798
abundantia	-12.18
eminent	-12.1801
obtinuit	-12.1806
vehiculum	-12.1806
cornelia	-12.1809
antarctic	-12.1813
procedere	-12.1824
ambitio	-12.1825
ascenderunt	-12.1825
chemica	-12.1833
fearful	-12.1838
reckon	-12.1841
piscina	-12.1844
fortified	-12.1845
rhetoric	-12.1846
apologize	-12.1847
architecture	-12.1847
medication	-12.1847
cheap	-12.1849
naturaliter	-12.1853
debitor	-12.1859
praeterita	-12.1864
vaga	-12.1869
antiox	-12.1872
melchi	-12.1876
decembr	-12.1876
peiue	-12.188
mittat	-12.188
deterior	-12.1881
occisioni	-12.1888
militare	-12.1889
dictionary	-12.1889
iudicem	-12.1892
exaltavit	-12.1893
pronunti	-12.1908
fastidi	-12.191
competent	-12.1912
theoria	-12.1913
bostonia	-12.1918
mhtros	-12.192
clement	-12.1926
sufficiens	-12.1929
dupliciter	-12.193
harsh	-12.1932
accepisti	-12.1941
willingly	-12.1959
cadent	-12.1966
excellence	-12.1967
voluntatis	-12.197
paenitentia	-12.197
iulius	-12.1974
ascendent	-12.1976
agamemnon	-12.1983
summum	-12.1985
vicini	-12.1991
audisset	-12.1994
potestati	-12.1995
messenians	-12.1997
exuro	-12.2004
excelso	-12.2006
utroque	-12.2008
sanct	-12.2009
ignominia	-12.201
creditur	-12.2012
miracula	-12.2015
spectant	-12.2015
italica	-12.2015
penitus	-12.2016
videlicet	-12.2016
voyage	-12.2022
respectu	-12.2028
quarrel	-12.2039
mood	-12.2042
legomen	-12.2043
liuoy	-12.2044
colleague	-12.2045
tutela	-12.2046
vehicula	-12.2052
iracundia	-12.2052
ostendam	-12.2053
abrahae	-12.2053
adprehend	-12.2053
municipium	-12.2055
canadian	-12.2057
arbitrium	-12.2058
tenebrae	-12.2058
vietnam	-12.2058
sanctification	-12.2059
consecutus	-12.206
pupil	-12.2068
dormivit	-12.2071
accipe	-12.2071
conspic	-12.2071
assistant	-12.2073
pulvere	-12.2077
stratopedey	-12.2082
laughter	-12.2083
relieve	-12.2085
contentio	-12.2086
humilitate	-12.2088
opponent	-12.209
intellegere	-12.2092
sufficiunt	-12.2094
aquilone	-12.2095
intelligible	-12.2095
hungari	-12.2096
aedificab	-12.2104
institutum	-12.2109
blameless	-12.211
lectu	-12.2111
habitabat	-12.2129
hound	-12.2134
genetic	-12.2134
xristoy	-12.2137
advena	-12.2139
milano	-12.2142
concert	-12.2146
faciant	-12.2147
survey	-12.2148
accelera	-12.2155
effectu	-12.2162
magistrates	-12.2167
dubia	-12.2173
octava	-12.2176
gregorius	-12.2178
contingit	-12.2184
legisti	-12.2186
kyrioy	-12.2186
francica	-12.2187
communitat	-12.2188
intentional	-12.22
intravit	-12.22
flavi	-12.2201
stamp	-12.2204
possessio	-12.2212
xronv	-12.2215
plug	-12.2217
invenitur	-12.2217
nimium	-12.2218
walter	-12.2219
principum	-12.222
culina	-12.2221
difficulties	-12.2224
awareness	-12.2224
sexaginta	-12.2226
hastened	-12.2227
ekeinos	-12.2238
antigon	-12.2251
finland	-12.2251
girlfriend	-12.2255
engage	-12.2258
complicated	-12.2262
contradicentem	-12.2262
homicida	-12.2263
oppida	-12.2263
sodales	-12.2263
messiah	-12.2265
ostendere	-12.2268
oppression	-12.2275
instituti	-12.2287
possibilities	-12.2287
dried	-12.2291
discret	-12.2291
armour	-12.2291
chinese	-12.2296
crescent	-12.2296
uniform	-12.2298
apollvnos	-12.2299
parallel	-12.2301
earthquake	-12.2302
optimus	-12.2304
contestabor	-12.2305
perseverantia	-12.2305
dixeris	-12.2306
carteia	-12.2306
praevaric	-12.2307
technology	-12.2309
ultimus	-12.2309
politics	-12.2309
misisse	-12.2312
declaration	-12.2314
duties	-12.2315
headache	-12.2315
trihr	-12.2317
delicia	-12.2318
ambros	-12.2321
odysse	-12.2324
silentio	-12.2326
discretion	-12.2331
nexus	-12.2335
respondebit	-12.2339
xvrei	-12.2342
hydro	-12.2344
boves	-12.2345
exploit	-12.2346
remembrance	-12.2347
mysterio	-12.2347
alcohol	-12.2348
abstulit	-12.2348
dynast	-12.2348
homosexual	-12.2351
reconcile	-12.2352
handmaid	-12.2355
imitation	-12.2366
fortress	-12.2384
grafh	-12.2386
prep	-12.2388
utilitatem	-12.2389
ucraina	-12.2391
mendacium	-12.2391
explorator	-12.2392
reuben	-12.2392
consumpti	-12.2393
arrogant	-12.2394
twist	-12.2401
acerb	-12.2401
oxlo	-12.2403
tertius	-12.2414
ekklhsia	-12.2428
expir	-12.2431
extraordinary	-12.2431
athletic	-12.2433
abiathar	-12.2434
spelling	-12.2437
sublime	-12.2442
obscuri	-12.2443
suscitans	-12.2449
facebook	-12.2451
expugn	-12.2457
pelopid	-12.2467
praesto	-12.2467
sonitu	-12.2467
polemo	-12.2477
vestigia	-12.2478
cognoscunt	-12.2478
prescribed	-12.2486
nauta	-12.2487
dilexisti	-12.2489
dixisse	-12.2491
incarnation	-12.2492
sufficientia	-12.2502
morrow	-12.2503
alphabet	-12.2505
assault	-12.2508
gallina	-12.2508
pleasing	-12.2519
brasilia	-12.2521
interficere	-12.2521
credentem	-12.2524
glaci	-12.2524
loquendi	-12.2526
magician	-12.2528
appellant	-12.254
vapor	-12.2542
crucifi	-12.2544
occupation	-12.2546
javelin	-12.2549
inclined	-12.2552
midian	-12.2552
trembling	-12.2556
holiness	-12.2564
videbatur	-12.2568
impossibili	-12.2572
severus	-12.2573
throng	-12.2573
indicavit	-12.2574
flew	-12.2574
translate	-12.2578
agaph	-12.258
rvmh	-12.2588
dimica	-12.2589
ardua	-12.2591
scind	-12.2593
ridicule	-12.2595
semita	-12.2598
omolog	-12.26
januari	-12.2607
retributionem	-12.2608
napoleon	-12.2608
accompanied	-12.261
francisco	-12.262
solutio	-12.2623
excell	-12.2627
rebellion	-12.2636
alicia	-12.2638
sikelia	-12.264
triakonta	-12.2645
adversaries	-12.2646
citadel	-12.2646
actress	-12.2646
cervic	-12.2649
identity	-12.2651
aedificia	-12.2652
pascha	-12.2652
sufficiant	-12.2653
emergency	-12.2653
annoying	-12.2653
budget	-12.2659
jupiter	-12.2663
pilatus	-12.2664
porci	-12.2667
svkrath	-12.2669
exspectaba	-12.2672
polevn	-12.2672
istuc	-12.2677
fragment	-12.2681
xvris	-12.2683
passive	-12.2684
prefect	-12.2687
genoito	-12.269
oblitus	-12.2696
narrative	-12.2696
instaura	-12.2697
viverra	-12.2698
controversy	-12.27
lectionem	-12.2703
objective	-12.2703
uysia	-12.2708
incendio	-12.2712
renovat	-12.2714
impediment	-12.2721
whirl	-12.2721
pendii	-12.2723
hsantes	-12.2724
penetra	-12.2726
catilina	-12.273
ponent	-12.2733
valiant	-12.2734
ptolema	-12.2737
debita	-12.2739
compound	-12.274
contribute	-12.274
obiectum	-12.2741
nuptias	-12.2741
teenager	-12.2742
croatia	-12.2744
prostrat	-12.2746
intestin	-12.2746
feliciter	-12.2748
stadia	-12.2754
rack	-12.2757
excessive	-12.2757
oppose	-12.2763
agrippa	-12.2764
sanctify	-12.2765
natali	-12.2766
ippevn	-12.2768
resistance	-12.2775
uerapey	-12.2777
barbara	-12.2778
strativtai	-12.278
saepius	-12.2781
virtutibus	-12.2785
exultabo	-12.2786
patent	-12.2786
visitation	-12.2792
cilicia	-12.2794
physician	-12.2801
faust	-12.2811
bonitate	-12.2812
flatter	-12.2813
characteristic	-12.2814
pingu	-12.2829
fugerunt	-12.283
evangelii	-12.2831
jericho	-12.2831
oppidi	-12.2832
hostili	-12.2832
diversitas	-12.2832
aperti	-12.284
subscribe	-12.2845
accend	-12.2851
arxonta	-12.2864
reprehend	-12.287
chicken	-12.2871
perspective	-12.2872
horrible	-12.2872
pilgrim	-12.2873
pontifex	-12.2874
faculty	-12.2875
mesopotamia	-12.2875
praecipientem	-12.2876
coniuncta	-12.2876
banned	-12.2878
credas	-12.288
negavit	-12.2882
pelagi	-12.2882
tragic	-12.2884
mobili	-12.2886
clark	-12.2892
mediocri	-12.2897
crack	-12.291
confidentia	-12.2916
dropped	-12.2916
quinquennium	-12.2919
priesthood	-12.292
sequuntur	-12.2922
testified	-12.2926
intelligibile	-12.2926
anguish	-12.2927
ingredere	-12.2928
golf	-12.293
satrap	-12.2932
biographi	-12.2933
harry	-12.2944
maritim	-12.2952
shipping	-12.2955
effugi	-12.2957
arator	-12.296
resembl	-12.2961
prophesied	-12.2965
delicious	-12.2967
captivitate	-12.2967
ekastos	-12.2967
proelium	-12.2967
farther	-12.2969
increasing	-12.298
hkoysa	-12.2983
acquisi	-12.2985
protinus	-12.2985
litterarum	-12.2985
exoysa	-12.2993
buff	-12.3002
negotiation	-12.3005
agency	-12.301
johann	-12.3012
netherlands	-12.3012
nabuchodonosor	-12.3013
quantitatis	-12.3014
undecim	-12.3014
bosom	-12.3017
timothy	-12.3018
ductus	-12.3018
perfume	-12.3019
compositum	-12.3019
rapina	-12.302
morph	-12.3021
flumina	-12.3023
brachium	-12.3029
perturbat	-12.3033
chester	-12.3042
mutatio	-12.3045
divert	-12.3049
detrah	-12.3049
paragrafi	-12.3058
thanksgiving	-12.3059
envelop	-12.3059
ishmael	-12.3059
sacrificia	-12.306
bibendum	-12.3063
confessio	-12.3064
obtulit	-12.3072
invitation	-12.308
carnal	-12.3081
ctura	-12.3087
grasp	-12.3096
rebecca	-12.3097
couch	-12.3098
ippeis	-12.3101
externa	-12.3103
anonymous	-12.3103
exspecto	-12.3104
asteroid	-12.3105
quartum	-12.3107
interrogationes	-12.3107
nazarenus	-12.3108
suppl	-12.3113
fluctu	-12.3115
constantius	-12.312
altaria	-12.3121
brick	-12.3123
auspic	-12.3125
torch	-12.3135
pythagor	-12.3136
innocentia	-12.3138
derelinqu	-12.3138
antvnioy	-12.314
boyfriend	-12.314
habuerit	-12.3148
nitrogen	-12.315
technologi	-12.3151
difficultates	-12.3152
grammatica	-12.3153
basically	-12.3155
interrogaverunt	-12.3155
exhibition	-12.3159
credebant	-12.316
overthrow	-12.3161
salary	-12.3163
cutting	-12.3164
testific	-12.3165
profecti	-12.3172
vulgar	-12.3181
austro	-12.3181
treasury	-12.3188
anticipate	-12.3194
latitudo	-12.3195
magnitudo	-12.3196
evangelist	-12.3198
concupiscentia	-12.3198
sensibili	-12.3199
opportuni	-12.3202
nuntiaverunt	-12.3208
succed	-12.3209
interrogant	-12.3217
affair	-12.3219
sempitern	-12.3225
frumentum	-12.3229
banquet	-12.323
anxiety	-12.3232
inaugura	-12.324
agriculture	-12.3242
synagoga	-12.3244
hierarch	-12.3244
parabola	-12.3245
millia	-12.3245
repleta	-12.3245
utriusque	-12.3247
achievement	-12.3248
covet	-12.3249
confectum	-12.3251
diligitur	-12.3251
dancing	-12.3252
charitate	-12.3253
vocaverunt	-12.3253
mediator	-12.3256
altior	-12.3259
accepisse	-12.3268
vestitu	-12.3278
execution	-12.328
cinna	-12.3284
decretum	-12.3289
tristitia	-12.3289
ignotus	-12.329
anthony	-12.329
samaritan	-12.3291
assumption	-12.3291
ekaston	-12.3293
plerique	-12.3293
volucr	-12.3298
dependentia	-12.3299
harmony	-12.33
capitula	-12.3302
suscite	-12.3302
jeff	-12.331
jewel	-12.3319
htton	-12.3321
oppugn	-12.3324
inclination	-12.3333
socium	-12.3337
habebis	-12.3342
interpretatu	-12.3343
remainder	-12.3344
communities	-12.3344
sponsi	-12.3344
habitaverunt	-12.3346
lewy	-12.3347
foul	-12.3353
differunt	-12.3353
russica	-12.3353
cultivator	-12.3354
foederati	-12.3359
slander	-12.3361
mystic	-12.3366
vallis	-12.337
pepoihtai	-12.3372
amazed	-12.3376
precedent	-12.338
berlin	-12.3385
adpropinqu	-12.3385
percipi	-12.3385
innocence	-12.3386
mistress	-12.3386
edvke	-12.339
abilities	-12.3394
vivendo	-12.3394
cloak	-12.3403
licitum	-12.3405
descendent	-12.3405
kratei	-12.3417
stoic	-12.3423
ajia	-12.3429
gehenna	-12.3433
vulputate	-12.3433
urbibus	-12.3435
rustic	-12.3435
bonitas	-12.3443
consociatio	-12.3445
klhro	-12.3447
mirror	-12.3448
cambia	-12.3453
activi	-12.3453
corrump	-12.3454
operator	-12.3455
pearl	-12.3455
minerva	-12.346
heracli	-12.3461
furious	-12.3462
aristotle	-12.3478
stadioy	-12.3478
insipient	-12.3482
shelter	-12.3484
practise	-12.3484
smoking	-12.3487
wick	-12.3487
uterque	-12.3487
joyful	-12.3495
solicit	-12.3502
corporation	-12.3504
automat	-12.3521
situated	-12.3524
genomenos	-12.3526
washington	-12.3528
privata	-12.353
iecerunt	-12.3532
thamar	-12.3532
agnoscit	-12.3533
paragraph	-12.3533
moriuntur	-12.3537
conueni	-12.3539
fecerim	-12.3539
varro	-12.3541
periculum	-12.3544
surpass	-12.3562
derived	-12.3563
hardened	-12.3565
komiz	-12.3569
digital	-12.3571
commov	-12.3571
hebdomade	-12.3577
divortium	-12.3577
mirabilia	-12.358
vacatio	-12.358
cliff	-12.3585
videbis	-12.3596
majority	-12.3597
hgon	-12.361
rvmaioys	-12.3611
dubitavi	-12.3622
explicit	-12.3623
circumstantia	-12.3625
singapore	-12.3625
antecessor	-12.3625
parlamenti	-12.3626
keitai	-12.3629
interfecti	-12.3637
revertetur	-12.3638
fugiunt	-12.3647
rident	-12.3648
thoroughly	-12.3649
extensive	-12.3657
miuridath	-12.3666
sacro	-12.3669
psalmist	-12.3671
poeni	-12.3671
apparatu	-12.3674
mechanic	-12.3674
sicyon	-12.3674
solitude	-12.3676
salutor	-12.3676
quanquam	-12.3677
philosophical	-12.3679
shameful	-12.3681
insulis	-12.3683
stronghold	-12.3685
ducuntur	-12.3699
valetudin	-12.3713
percussi	-12.3718
eternity	-12.3723
praedestinavit	-12.3723
adipiscing	-12.3725
magnificavit	-12.3727
luxuria	-12.3728
supplement	-12.3735
thief	-12.3735
spoydh	-12.376
superstitio	-12.3763
bodily	-12.3764
settlement	-12.3766
occasionally	-12.3766
anastas	-12.3766
literally	-12.3767
valentinian	-12.3769
oportuit	-12.3771
invaded	-12.3771
puncto	-12.3772
dapibus	-12.3774
iudicabitur	-12.3774
magnitude	-12.3775
deficiet	-12.3775
impend	-12.3776
calvin	-12.3782
ibhria	-12.379
shock	-12.3792
ologist	-12.3805
misfortune	-12.3805
arthur	-12.3805
syllab	-12.3807
pericles	-12.3812
victories	-12.3818
uoryb	-12.3822
anthropolog	-12.3823
splend	-12.3825
hitler	-12.3825
readily	-12.3829
proposal	-12.3829
opprime	-12.3831
truck	-12.3834
accedere	-12.3837
plenus	-12.3837
mittuntur	-12.3841
ultimi	-12.3846
pomphios	-12.385
teixos	-12.3859
libyh	-12.3862
thankful	-12.3868
nodded	-12.3871
arcu	-12.3872
fluvius	-12.3872
subiecto	-12.3872
retribuam	-12.3872
archaeologi	-12.3873
vocabulary	-12.3873
component	-12.3879
capillos	-12.3882
loaves	-12.3883
cessavit	-12.3888
magistro	-12.3889
atroci	-12.3891
convenientia	-12.3893
thracian	-12.3895
singulorum	-12.3904
aphrodite	-12.3911
sprinkle	-12.3916
sollemn	-12.3916
scotia	-12.3917
fabulous	-12.3921
suppositum	-12.3922
swedish	-12.3922
confidere	-12.3922
premier	-12.3924
whilst	-12.3925
plastic	-12.3926
magdal	-12.3927
etiqueta	-12.3929
dementia	-12.3937
tentatio	-12.3949
destined	-12.395
bebai	-12.3955
allhlvn	-12.3961
coerc	-12.3963
commoda	-12.3968
iosaphat	-12.3972
luxury	-12.3973
existimo	-12.3973
trench	-12.3975
throat	-12.3975
recompens	-12.3978
scotland	-12.3979
reception	-12.398
librari	-12.3991
diminish	-12.3996
hoplites	-12.4007
demetrius	-12.4009
hlikia	-12.4014
studied	-12.402
countenance	-12.4023
oxford	-12.4024
suscitabis	-12.4026
reminisc	-12.4027
facultas	-12.4027
optimo	-12.403
dynamic	-12.4035
convey	-12.4049
canonica	-12.4054
cherish	-12.4059
prohibition	-12.4069
contaminat	-12.4071
dialogue	-12.4072
alternative	-12.4072
margarita	-12.4072
literary	-12.4073
ignosce	-12.4076
adversario	-12.4078
dutch	-12.4085
kaloymenh	-12.4092
excelsis	-12.4095
tattoo	-12.4101
xeimvn	-12.4108
cruelty	-12.4114
malign	-12.4115
surrexi	-12.4123
zabulon	-12.4124
neutral	-12.4126
dikaiv	-12.4127
securitate	-12.4129
lucerna	-12.4129
sequente	-12.413
propriis	-12.413
babies	-12.4131
iulio	-12.4137
blank	-12.4143
esxen	-12.4144
necessita	-12.4152
vectigal	-12.4161
broyto	-12.4167
confusi	-12.4171
territoria	-12.4172
retributio	-12.4173
conservation	-12.4173
accepimus	-12.4177
vanish	-12.4177
deceptus	-12.4178
conditor	-12.4179
resources	-12.418
apronius	-12.418
phobia	-12.4183
houla	-12.4186
concrete	-12.4186
dionysius	-12.4188
mittent	-12.4195
exhortation	-12.4208
styli	-12.421
tradidi	-12.421
guarantee	-12.4221
leadership	-12.4224
residence	-12.4224
fluminis	-12.4227
diligunt	-12.4227
decrease	-12.4227
microsoft	-12.4227
kjv	-12.4228
hospiti	-12.4228
necessitatis	-12.423
gynh	-12.423
oppositum	-12.4231
apprehens	-12.4234
conditio	-12.4238
vincent	-12.4241
speravi	-12.4247
quaesivi	-12.4251
vertuntur	-12.4253
krht	-12.4254
vomit	-12.4272
sollicita	-12.4278
constantinopoli	-12.4278
succend	-12.428
tradider	-12.4282
iacent	-12.4286
pirata	-12.4287
excipi	-12.4288
consummati	-12.4292
descensu	-12.4301
anauhma	-12.432
calamity	-12.4323
ostendi	-12.4326
tenebras	-12.4331
hieroboam	-12.4332
diagnosis	-12.4332
puerpera	-12.4333
mercury	-12.4334
attinet	-12.4337
aedificium	-12.4338
probabile	-12.4341
territories	-12.4344
ventura	-12.4346
fetch	-12.435
alternate	-12.4352
terrestri	-12.4355
ritual	-12.4369
marcellus	-12.437
enteyuen	-12.4378
cleopatra	-12.4378
quotidian	-12.4381
terrified	-12.4382
geographia	-12.4383
attitude	-12.4384
colony	-12.4384
decipere	-12.4385
tentationem	-12.4389
ulysses	-12.4391
visitors	-12.4393
irrational	-12.4393
conversi	-12.4406
prodigi	-12.4413
besieged	-12.4413
appareb	-12.4417
tradurre	-12.4436
reprimique	-12.4436
michel	-12.4437
shekels	-12.4439
amalek	-12.444
iunior	-12.4447
imaginari	-12.4454
practica	-12.4458
intimate	-12.4475
gustav	-12.4481
adversary	-12.4482
suffoca	-12.4489
inhabitationem	-12.4489
tremor	-12.449
fabric	-12.4492
prominent	-12.4493
curtain	-12.4499
texnh	-12.45
representative	-12.45
attribution	-12.4503
praeterito	-12.451
meditati	-12.4522
flamin	-12.4526
timoleon	-12.4536
pestilence	-12.4537
rebellious	-12.4538
democratia	-12.454
quadrupl	-12.4541
oeconomia	-12.4541
maecenas	-12.4542
corrigere	-12.4542
sepulcro	-12.4542
nederlandia	-12.4542
ioannem	-12.4542
jehoshaphat	-12.4543
seventeen	-12.4544
concipi	-12.4544
jonah	-12.4549
interpretatio	-12.455
saeculum	-12.4552
magnetic	-12.4553
referendum	-12.4559
wondrous	-12.4561
consuma	-12.4565
absence	-12.4568
scalp	-12.457
xilioys	-12.4581
obtinere	-12.4592
aemilius	-12.4593
cubiculum	-12.4595
executive	-12.4595
volutpat	-12.4595
multitudini	-12.4596
meminisse	-12.4596
goliath	-12.4596
optimism	-12.4597
falsus	-12.4598
politico	-12.4601
latro	-12.4601
susceper	-12.4602
cultivate	-12.4603
constantia	-12.4606
troia	-12.4616
lycurgus	-12.4633
authorities	-12.4634
earnestly	-12.4637
kyklv	-12.4639
lakedaimonioys	-12.4639
dokoyn	-12.4642
gradually	-12.4642
ativum	-12.4644
reciproc	-12.4648
assyri	-12.4651
sophia	-12.4652
sxhma	-12.4654
considerandum	-12.4654
fowl	-12.4657
blemish	-12.4658
clarifica	-12.4659
pessimi	-12.4661
fygh	-12.4667
shaft	-12.4673
bellator	-12.4674
auxili	-12.4683
gonna	-12.4686
hrakleoys	-12.4694
taylor	-12.4698
thailand	-12.4699
articulo	-12.4701
fylaj	-12.4702
confestim	-12.4703
poenitentia	-12.4703
sacrificio	-12.4703
statistica	-12.4706
kyrios	-12.4709
leonard	-12.4719
slightly	-12.4725
